41205472616e7370
6172656e74204c69
6768742d57656967
68742047726f7570
2053657276696365
010a4c75c4b1cc81
7320526f64726967
7565730a0a4b6174
686572696e652047
756f0a0a416e746f
6e696f2053617267
656e746f0a0a526f
6262657274207661
6e2052656e657373
650a0a4272616420
476c6164650a0a6c
657240696e657363
2e70740a0a6b6775
6f4063732e636f72
6e656c6c2e656475
0a0a616d67734070
616e646f72612e69
6e6573632e70740a
0a7276724063732e
636f726e656c6c2e
6564750a0a676c61
646540697369732e
636f6d0a0a506175
6c6f20566572c4b1
cc817373696d6f0a
0a4b656e6e657468
204269726d616e0a
0a7061756c6f7640
696e6573632e7074
0a0a6b656e406373
2e636f726e656c6c
2e6564750a0a4162
7374726163740a54
6865207669727475
616c2073796e6368
726f6e79206d6f64
656c20666f722067
726f757020636f6d
6d756e6963617469
6f6e0a6861732070
726f76656e20746f
206265206120706f
77657266756c2070
6172616469676d20
666f72206275696c
64696e6720646973
7472696275746564
206170706c696361
74696f6e732e2049
6d706c656d656e74
6174696f6e73206f
6620766972747561
6c2073796e636872
6f6e790a75737561
6c6c792072657175
6972652074686520
757365206f662066
61696c7572652064
65746563746f7273
20616e6420666169
6c75726520726563
6f76657279207072
6f746f636f6c732e
20496e206170706c
69636174696f6e73
2074686174207265
7175697265207468
6520757365206f66
20610a6c61726765
206e756d62657220
6f662067726f7570
732c207369676e69
666963616e742070
6572666f726d616e
6365206761696e73
2063616e0a626520
61747461696e6564
2069662074686573
652067726f757073
2073686172652074
6865207265736f75
7263657320726571
756972656420746f
0a70726f76696465
207669727475616c
2073796e6368726f
6e792e2041207365
7276696365207468
6174206d61707320
757365722067726f
7570730a6f6e746f
20696e7374616e63
6573206f66206120
7669727475616c6c
792073796e636872
6f6e6f757320696d
706c656d656e7461
74696f6e2069730a
63616c6c65642061
204c696768742d57
6569676874204772
6f75702053657276
6963652e0a546869
7320706170657220
70726f706f736573
2061206e65772064
657369676e20666f
7220746865204c69
6768742d57656967
68740a47726f7570
2070726f746f636f
6c73207468617420
656e61626c657320
7468652075736167
65206f6620746869
7320736572766963
6520696e0a612074
72616e7370617265
6e74206d616e6e65
722e204173206120
7465737420636173
652c20746865206e
6577206465736967
6e207761730a696d
706c656d656e7465
6420696e20746865
20486f7275732073
797374656d2c2061
6c74686f75676820
74686520756e6465
726c79696e670a70
72696e6369706c65
732063616e206265
206170706c696564
20746f206f746865
7220617263686974
6563747572657320
61732077656c6c2e
205468650a706170
657220616c736f20
70726573656e7473
20706572666f726d
616e636520726573
756c74732066726f
6d20746869732069
6d706c656d656e74
6174696f6e2e0a0a
310a0a496e74726f
64756374696f6e0a
0a5669727475616c
6c792073796e6368
726f6e6f75732067
726f757020636f6d
6d756e6963617469
6f6e205b312c2032
2c2031335d0a6861
732070726f76656e
20746f2062652061
20706f7765726675
6c20706172616469
676d20666f722064
6576656c6f70696e
6720646973747269
6275746564206170
706c69636174696f
6e732e2054686973
2070617261646967
6d20616c6c6f7773
2070726f63657373
657320746f206265
0a6f7267616e697a
656420696e206772
6f75707320776974
68696e2077686963
68206d6573736167
6573206172652065
786368616e676564
0a746f2061636869
657665206120636f
6d6d6f6e20676f61
6c2e205669727475
616c2073796e6368
726f6e7920656e73
7572657320746861
740a616c6c207072
6f63657373657320
696e207468652067
726f757020726563
6569766520636f6e
73697374656e7420
696e666f726d6174
696f6e0a61626f75
7420746865206772
6f7570206d656d62
6572736869702069
6e2074686520666f
726d206f66207669
6577732e20546865
0a6d656d62657273
686970206f662061
2067726f7570206d
6179206368616e67
6520776974682074
696d652062656361
757365206e65770a
70726f6365737365
73206d6179206a6f
696e207468652067
726f757020616e64
206f6c642070726f
636573736573206d
6179206661696c20
6f720a766f6c756e
746172696c79206c
6561766520746865
2067726f75702e20
5669727475616c20
73796e6368726f6e
7920616c736f206f
72646572730a6d65
7373616765732077
6974682076696577
206368616e676573
2c20616e64206775
6172616e74656573
207468617420616c
6c2070726f636573
7365732074686174
20696e7374616c6c
2074776f20636f6e
7365637574697665
2076696577732064
656c697665722074
68652073616d650a
736574206f66206d
6573736167657320
6265747765656e20
7468657365207669
6577732e0a546f20
70726f7669646520
7669727475616c20
73796e6368726f6e
792c20696d706c65
6d656e746174696f
6e73207265717569
72650a0120546869
7320776f726b2077
6173207061727469
616c6c7920737570
706f727465642062
7920746865204345
432c207468726f75
6768204553505249
542f204252410a57
6f726b696e672047
726f757020323620
28474f4443292061
6e64207468652041
5250412f4f4e5220
6772616e74204e30
303031342d39322d
4a2d313836362e0a
0a74686520757365
206f66206661696c
7572652064657465
63746f727320616e
6420746865206578
65637574696f6e20
6f66206167726565
6d656e740a616e64
206f72646572696e
672070726f746f63
6f6c732e204e6174
7572616c6c792c20
746865736520636f
6d706f6e656e7473
20636f6e73756d65
20736f6d6520616d
6f756e74206f6620
73797374656d2072
65736f7572636573
2c20737563682061
732062616e647769
6474680a616e6420
70726f6365737369
6e6720706f776572
2e20416c74686f75
6768207468652069
6d70616374206f66
2074686573652073
657276696365730a
696e20746865206f
766572616c6c2073
797374656d207065
72666f726d616e63
6520697320757375
616c6c7920736d61
6c6c2c2074686572
65206172650a6f70
706f7274756e6974
69657320666f7220
6f7074696d697a61
74696f6e20776865
6e20736576657261
6c2067726f757073
206861766520610a
6c61726765207065
7263656e74616765
206f6620636f6d6d
6f6e206d656d6265
72732c2062656361
7573652074686573
652067726f757073
0a63616e20736861
726520636f6d6d6f
6e20736572766963
65732e2053756368
206f70706f727475
6e69746965732061
707065617220696e
0a6d616e79206170
706c69636174696f
6e73205b362c2031
315d2c20696e2070
6172746963756c61
72207768656e206f
626a6563742d6f72
69656e7465640a70
726f6772616d6d69
6e67207374796c65
7320617265207573
6564205b392c2031
355d2e20466f7220
696e7374616e6365
2c20612070617261
6c6c656c0a617070
6c69636174696f6e
2070726f6772616d
6d6564207573696e
6720616e20646973
7472696275746564
206f626a65637420
6d656d6f72790a63
616e206372656174
652068756e647265
6473206f66206772
6f75707320776974
682073696d696c61
72206d656d626572
73686970205b335d
2e0a412074656368
6e69717565207468
617420616c6c6f77
7320746865207072
6576696f75732074
797065206f66206f
7074696d697a6174
696f6e20636f6e73
69737473206f6620
6d617070696e6720
7365766572616c20
75736572206c6576
656c2067726f7570
73206f6e746f2061
0a73696e676c6520
7669727475616c6c
792073796e636872
6f6e6f7573206772
6f75702e2053696e
6365207468657365
2067726f7570730a
736861726520636f
6d6d6f6e20726573
6f75726365732c20
746865792063616e
20626520696d706c
656d656e74656420
6d6f726520656666
696369656e746c79
207468616e207374
616e64616c6f6e65
2067726f75707320
616e642061726520
63616c6c6564204c
696768742d576569
6768740a47726f75
707320284c574773
20292e20496e2063
6f6e74726173742c
2074686520756e64
65726c79696e6720
7669727475616c6c
792073796e636872
6f6e6f7573206772
6f75702069732063
616c6c656420696e
207468697320636f
6e74657874206120
48656176792d5765
696768740a47726f
7570202848574720
292e204120736572
7669636520746861
74206d617073204c
574773206f6e746f
2048574773206973
0a757375616c6c79
2063616c6c656420
61204c696768742d
5765696768742047
726f757020536572
766963652e0a5468
65204c5747207061
72616469676d2069
73206265696e6720
7573656420696e20
7365766572616c20
7265616c2d776f72
6c640a6170706c69
636174696f6e732e
20494e46532c2061
2072656c6961626c
65206e6574776f72
6b2066696c652073
797374656d206275
696c74206f6e0a74
6865204973697320
73797374656d2c20
7573657320746869
7320706172616469
676d206279206173
736f63696174696e
67204c5747732077
6974680a7265706c
6963617465642066
696c65732e20496e
2074686973207379
7374656d2c207468
65207265706c6963
617320666f722061
2066696c65206368
616e67650a6f7665
722074696d652061
7320757365727320
6368616e67652074
6865207265706c69
636174696f6e2070
726f706572746965
73206f6620746865
2066696c650a6f72
2061732061636365
7373207061747465
726e7320746f2074
68652066696c6520
6368616e67652e20
546865204c574720
706172616469676d
0a6c656e64732069
7473656c66207765
6c6c20746f207468
6973206170706c69
636174696f6e2061
7320746865206c61
726765206e756d62
6572206f660a6669
6c657320616d6f72
74697a6564206f76
6572206120736d61
6c6c20736574206f
662066696c652072
65706c6963617469
6f6e207365727665
72730a6361757365
207369676e696669
63616e7420736861
72696e67206f6620
4857477320626574
7765656e204c5747
73202e2054686973
2073657474696e67
2063616e20626520
67656e6572616c69
7a656420746f2061
70706c7920746f20
616e79206170706c
69636174696f6e20
77686963680a6d75
6c7469706c657865
73206d616e79206f
626a656374206772
6f757073206f7665
72206120736d616c
6c65722073657420
6f662070726f6365
73736573206f7220
6d616368696e6573
2e20496e20726563
6f676e6974696f6e
206f662074686973
2c20746865207061
72616469676d2069
730a737570706f72
74656420696e2074
6865204f72626978
2b49736973207072
6f64756374206672
6f6d204973697320
4469737472696275
7465640a53797374
656d732c20616e64
20496f6e61205465
63686e6f6c6f6769
6573204c74642e20
48657265204c5747
7320706c61792061
206b65790a726f6c
6520696e20726564
7563696e67207468
6520636f73747320
6f66206f626a6563
742067726f757073
20627920616d6f72
74697a696e670a6d
616e79206c696768
742d776569676874
206d656d62657273
686970206368616e
676573206f766572
2048574773202e0a
4c696768742d5765
696768742047726f
7570205365727669
6365732068617665
206265656e20696d
706c656d656e7465
64206265666f7265
20696e2064696666
6572656e74206772
6f75702062617365
6420636f6d6d756e
69636174696f6e20
73797374656d7320
5b362c2031315d2e
0a556e666f727475
6e6174656c792c20
696e207468652070
726576696f757320
776f726b2c204c57
477320646964206e
6f74207072657365
7276650a0a0c7468
6520657861637420
696e746572666163
65206f6620746865
20756e6465726c79
696e672076697274
75616c6c79207379
6e6368726f6e6f75
730a67726f75702c
20696d706f73696e
6720726573747269
6374696f6e73206f
6e2067726f757020
75736167652e2054
6869732070617065
722070726f706f73
65732061206e6577
2064657369676e20
666f722074686520
4c57472070726f74
6f636f6c73207468
6174206369726375
6d76656e74730a73
756368206c696d69
746174696f6e732c
20696e2070617274
6963756c61722c20
69742070726f706f
73657320616e2069
6e6e6f7661746976
650a64796e616d69
63206d617070696e
6720617070726f61
6368207468617420
616c6c6f77732074
6865204c69676874
2d5765696768740a
47726f7570205365
727669636520746f
20626520696d706c
656d656e74656420
696e20612066756c
6c79207472616e73
706172656e74206d
616e6e65722e2041
7320612074657374
20636173652c2074
6865206e65772070
726f746f636f6c73
207765726520696d
706c656d656e7465
6420696e0a746865
20486f7275732073
797374656d205b31
345d202861732061
206e65772070726f
746f636f6c206c61
7965722920627574
207468650a756e64
65726c79696e6720
7072696e6369706c
65732063616e2062
65206170706c6965
6420746f206f7468
6572206172636869
7465637475726573
0a28696e636c7564
696e672074686520
49736973205b365d
20616e64204e4156
54454348205b3136
5d2073797374656d
73292e0a54686520
7061706572206973
206f7267616e697a
656420617320666f
6c6c6f77732e2052
656c617465642077
6f726b2069732073
7572766579656420
696e205365637469
6f6e20322e205468
652064657369676e
206f662074686520
4c696768742d5765
696768742047726f
75700a5365727669
6365206973206465
7363726962656420
696e205365637469
6f6e203320616e64
207468652070726f
746f636f6c732061
7265207072657365
6e74656420696e20
53656374696f6e20
342e20416e20696d
706c656d656e7461
74696f6e20696e20
486f727573206973
2070726573656e74
656420696e205365
6374696f6e203520
616e642053656374
696f6e203620636f
6e636c7564657320
7468652070617065
722e0a0a320a0a52
656c617465642077
6f726b0a0a546f20
6f7572206b6e6f77
6c656467652c2044
656c74612d34205b
31315d2077617320
7468652066697273
742073797374656d
20746f206f666665
7220736f6d652066
6f726d206f66204c
696768742d576569
6768742047726f75
7020536572766963
652e205468652044
656c74612d340a67
726f757020636f6d
6d756e6963617469
6f6e207375627379
7374656d20776173
2073747275637475
7265642061732061
206c617965726564
2061726368697465
63747572652c2069
6e20612066617368
696f6e2073696d69
6c617220746f2074
686174206f662074
68652049534f0a73
7461636b2e205669
727475616c6c7920
73796e6368726f6e
6f75732073757070
6f72742077617320
70726f7669646564
20696e207468650a
6c6f776572206c61
79657273206f6620
7468652061726368
6974656374757265
2c20696d6d656469
6174656c79206f6e
20746f70206f6620
7374616e64617264
204d41432070726f
746f636f6c732e20
5365766572616c20
73657373696f6e20
6c6576656c206772
6f7570732063616e
2062650a6d617070
6564206f6e746f20
612073696e676c65
204d4143206c6576
656c2067726f7570
2c20627574207468
6174206173736f63
696174696f6e2077
6173207374617469
63616c6c79206465
66696e6564202873
75636820616e2061
73736f6369617469
6f6e206973206361
6c6c656420610a63
6f6e6e656374696f
6e20696e20746865
2044656c74612d34
207465726d696e6f
6c6f6779292e0a54
6865204973697320
73797374656d2068
617320657874656e
6465642074686973
207072696e636970
6c652c206f666665
72696e6720610a4c
696768742d576569
6768742047726f75
7020536572766963
6520746861742073
7570706f72747320
64796e616d696320
6173736f63696174
696f6e7320626574
7765656e20757365
72206c6576656c20
67726f7570732061
6e6420636f726520
497369732067726f
757073205b365d2e
0a5374696c6c2c20
696e206f72646572
20746f206d616b65
20617070726f7072
69617465206d6170
70696e6720646563
6973696f6e732c20
497369730a4c5747
7320726571756972
6520746865207370
6563696669636174
696f6e206f662074
6865207461726765
74206d656d626572
73686970206f660a
6120757365722067
726f75702e0a4e65
6974686572206f66
2074686573652061
7070726f61636865
7320697320747261
6e73706172656e74
2c20696e20746865
2073656e73650a74
6861742074686579
20646f206e6f7420
7072657365727665
20746865206f7269
67696e616c204857
4720696e74657266
6163652e20496e0a
626f746820636173
65732c2069742069
73206e6563657373
61727920746f2070
726f766964652061
64646974696f6e61
6c20696e666f726d
6174696f6e2c0a61
6e64206974206973
206f75722062656c
6965662074686174
2074686973206164
646974696f6e616c
20696e666f726d61
74696f6e206c696d
697473207468650a
616476616e746167
6573206f66204c57
477320696e207477
6f20776179733a0a
0a02206120706f77
657266756c206665
6174757265206f66
207669727475616c
2073796e6368726f
6e79206973207468
617420697420646f
65730a6e6f742072
6571756972652061
2d7072696f726920
6b6e6f776c656467
65206f6620746865
2067726f7570206d
656d626572736869
703b207265717569
72696e6720746869
7320616464697469
6f6e616c20696e66
6f726d6174696f6e
20746f20696d706c
656d656e74207468
65204c5747207072
6f746f636f6c7320
7265647563657320
746865206170706c
69636162696c6974
79206f660a746865
2073797374656d2e
0a0220686176696e
6720612064696666
6572656e74207072
6f6772616d6d696e
6720696e74657266
6163652c206e6f74
206f6e6c790a666f
7263657320657869
7374696e67206170
706c69636174696f
6e7320746f206265
206368616e676564
2c2062757420616c
736f207072657665
6e74732074686520
4c57472070726f74
6f636f6c73206672
6f6d206265696e67
2075736564206173
20616e206f707469
6f6e616c0a666561
747572652c20696e
2061207472616e73
706172656e74206d
616e6e65722e0a49
6e20746869732070
617065722c207765
2073756767657374
2061206e65772073
75697465206f6620
70726f746f636f6c
732077686963680a
6f66666572207468
65204c5747206162
737472616374696f
6e207472616e7370
6172656e746c7920
756e6465726e6561
746820746865206f
726967696e616c20
48574720696e7465
72666163652e0a0a
330a0a4465736967
6e206f7665727669
65770a0a54686520
6d61696e20676f61
6c206f6620746865
2064796e616d6963
204c574720536572
7669636520697320
746f20737570706f
7274207265736f75
7263652073686172
696e67206279206d
617070696e672073
65766572616c204c
5747732067726f75
707320776974680a
73696d696c617220
6d656d6265727368
6970206f6e746f20
612073696e676c65
2048574720696e20
6120776179207468
61742066756c6c79
0a70726573657276
657320746865206f
726967696e616c20
48574720696e7465
72666163652e2054
6875732c20746865
206d617070696e67
0a6265747765656e
204c57477320616e
642048574773206d
7573742062652064
6f6e6520696e2061
20636f6d706c6574
656c79206175746f
6d61746564206d61
6e6e65722e204173
206120706f736974
6976652073696465
2065666665637420
6f66207265736f75
7263652073686172
696e672c20776520
6578706563742074
6f20646563726561
736520746865206c
6174656e6379206f
662067726f757020
6f7065726174696f
6e730a6279206176
6f6964696e672072
6564756e64616e74
2073746172742d75
702070726f636564
757265732e0a5468
65204c5747205365
7276696365207065
72666f726d732069
7473207461736b20
6279206d616e6167
696e67206120706f
6f6c0a6f66204857
477320616e642065
737461626c697368
696e67206173736f
63696174696f6e73
206265747765656e
204c57477320616e
640a746865736520
48574773202e2045
766572792074696d
652061206e657720
4c57472069732063
7265617465642c20
7468652053657276
6963650a6d757374
2064656369646520
6966207468697320
4c57472073686f75
6c64206265206173
736f636961746564
2077697468206f6e
65206f660a746865
20616c7265616479
2063726561746564
2048574773202869
6620616e79292c20
6f72206966206120
6e65772048574720
73686f756c640a62
6520616464656420
746f207468652070
6f6f6c2e20576861
7465766572206465
636973696f6e2069
73206d6164652c20
746865206e65770a
4c57472077696c6c
206265206173736f
6369617465642077
69746820736f6d65
2048574720616e64
2077696c6c207368
6172652074686174
0a48574720776974
68206f7468657220
4c574773202e2053
696e636520746865
2064657369676e20
696d706f73657320
6e6f207265737472
696374696f6e2069
6e20746865207761
7920746865206d65
6d62657273686970
206f66204c574773
206368616e676573
20696e2074696d65
2c0a6d617070696e
6773207468617420
6172652061707072
6f70726961746520
6174206f6e652070
6f696e74206d6179
206265636f6d6520
696e656666696369
656e742061732074
6865207379737465
6d2065766f6c7665
732e20546f20636f
6d70656e73617465
2074686573652063
68616e6765732c0a
746865204c574720
5365727669636520
616c6c6f7773206d
617070696e677320
746f206265206479
6e616d6963616c6c
7920726564656669
6e65642e20496e20
7375636820636173
6573207765207361
7920746861742061
204c574720697320
7377697463686564
2066726f6d206f6e
650a48574720746f
20616e6f74686572
2e20496620617420
736f6d6520706f69
6e7420696e207469
6d65206120676976
656e204857472073
65656d730a746f20
6265636f6d652075
6e7375697461626c
6520666f72206573
7461626c69736869
6e67206675727468
6572206d61707069
6e67732c2069740a
69732072656c6561
7365642066726f6d
2074686520706f6f
6c2e20546875732c
2074686520706f6f
6c206f6620485747
73206d616e616765
640a627920746865
2053657276696365
20657870616e6473
20616e6420736872
696e6b7320696e20
74696d652c206e6f
74206f6e6c792064
75650a746f207468
6520637265617469
6f6e206f66206e65
77204c574773202c
2062757420616c73
6f2064756520746f
206368616e676573
20696e0a6d656d62
6572736869702069
6e20746865736520
67726f7570732e0a
546865204c574720
7365727669636520
7468656e20686173
207468726565206d
61696e207461736b
733a202869292070
7265736572766573
2074686520766972
7475616c6c792073
796e6368726f6e6f
757320696e746572
66616365206f6620
7468652048574773
20746f207468650a
4c57477320757365
72733b2028696929
20646566696e6573
20746865206d6170
70696e6720616e64
2073776974636869
6e6720706f6c6963
6965733b0a616e64
2028696969292069
6e766f6b65732061
2073776974636869
6e672070726f746f
636f6c2c20776869
6368206973206120
70726f746f636f6c
0a7468617420616c
6c6f777320746865
206173736f636961
74696f6e20626574
7765656e2061204c
574720616e642061
2048574720746f20
62650a6368616e67
6564206174207275
6e2074696d652e20
496e207468697320
7061706572207765
2070726573656e74
207468652070726f
746f636f6c730a74
68617420616c6c6f
7720757320746f20
6163686965766520
7468652066697273
7420616e64207468
697264206f662074
6865736520746173
6b732e205468650a
6669727374207461
736b206973206120
637269746963616c
20706f696e742069
6e20746865206f76
6572616c6c206465
7369676e2061732c
206966206e6f2070
6572666f726d616e
636520616476616e
7461676573206361
6e206265206f6274
61696e6564206279
206d617070696e67
207365766572616c
0a4c574773206f6e
746f20612073696e
676c652048574720
2c2074686520696d
706c656d656e7461
74696f6e206f6620
6d617070696e670a
616e642073776974
6368696e67207374
7261746567696573
206265636f6d6573
20706f696e746c65
73732e20496e2074
6869732070617065
720a776520646573
6372696265207468
652070726f746f63
6f6c20666f722073
7769746368696e67
206265747765656e
2067726f75707320
6275740a6e6f7420
7468652064656369
73696f6e2070726f
6365737320746861
74206c6561647320
746f207468652069
6e766f636174696f
6e206f6620746869
730a70726f746f63
6f6c20286d617070
696e6720616e6420
737769746368696e
6720686575726973
7469637320617265
2064697363757373
656420696e0a616e
6f74686572207265
706f7274205b3132
5d292e0a0a340a0a
50726f746f636f6c
730a0a5468697320
73656374696f6e20
6465736372696265
7320746865207072
6f746f636f6c7320
7468617420696d70
6c656d656e742074
68650a4c69676874
2d57656967687420
47726f7570205365
72766963652e2054
686573652070726f
746f636f6c732070
6572666f726d2073
65766572616c2074
61736b7320726571
756972656420746f
206f666665722076
69727475616c2073
796e6368726f6e79
3a206a6f696e2061
2067726f75702c0a
6c65617665206120
67726f75702c2061
6e64206d756c7469
63617374206d6573
736167657320696e
20612067726f7570
2e20466f720a7365
6c662d636f6e7461
696e6d656e742c20
7468652073776974
6368696e67207072
6f746f636f6c2069
7320616c736f2070
726573656e746564
2e0a0a0c54686520
73656374696f6e20
7374617274732062
792070726573656e
74696e6720746865
20617373756d7074
696f6e732061626f
7574207468650a75
6e6465726c79696e
6720284865617679
2d57656967687429
207669727475616c
6c792073796e6368
726f6e6f75732073
6572766963652e0a
0a342e310a0a4173
73756d7074696f6e
730a0a546865204c
696768742d576569
6768742047726f75
7020536572766963
6520646573637269
62656420696e2074
6869732070617065
720a776173206465
7369676e65642074
6f2072756e206f6e
20616e79206f6620
6120736574206f66
2067726f75702063
6f6d6d756e696361
74696f6e20617263
6869746563747572
65732e2050617274
6963756c61726c79
2c20746865207365
7276696365207761
732064657369676e
65640a7769746820
7468652049736973
2c20486f72757320
616e64204e415654
4543482073797374
656d7320696e206d
696e642e20416c6c
0a74686573652073
797374656d732070
726f766964652061
207669727475616c
6c792073796e6368
726f6e6f75732063
6f6d6d756e696361
74696f6e20736572
766963652e0a342e
312e312056697274
75616c2073796e63
68726f6e792e2049
6e666f726d616c6c
792c207669727475
616c2073796e6368
726f6e790a70726f
7669646573206772
6f7570206d656d62
6572736869702069
6e666f726d617469
6f6e20746f206561
63682070726f6365
737320696e0a7468
6520666f726d206f
6620766965777320
616e642067756172
616e746565732074
68617420616c6c20
70726f6365737365
7320746861742069
6e7374616c6c2074
776f20636f6e7365
6375746976652076
696577732064656c
6976657220746865
2073616d65207365
74206f66206d6573
73616765730a6265
747765656e207468
6573652076696577
732e204d6f726520
666f726d616c6c79
2c20766972747561
6c6c792073796e63
68726f6e6f75730a
6d756c7469636173
7420636f6d6d756e
69636174696f6e20
63616e2062652064
6566696e65642061
7320666f6c6c6f77
73205b31335d3a0a
76732d6d756c7469
636173743a20436f
6e73696465722061
20736574206f6620
70726f6365737365
7320672c20612076
6965772056206920
2867292c0a616e64
2061206d65737361
6765206d206d756c
7469636173742074
6f20746865206d65
6d62657273206f66
2067726f75700a56
2069202867292e20
546865206d756c74
6963617374206f66
206d657373616765
206d206973206361
6c6c656420612076
736d756c74696361
7374206966662074
686520666f6c6c6f
77696e672070726f
7065727479206973
2073617469736669
65642e2049660a39
7020322056206920
2867292077686963
6820686173206465
6c69766572656420
6d20696e20766965
7720562069202867
290a616e64206861
7320696e7374616c
6c65642076696577
205620692b312028
67292c207468656e
2065766572792070
726f636573730a71
2032205620692028
6729207768696368
2068617320696e73
74616c6c65642056
20692b3120286729
206861732064656c
6976657265640a6d
206265666f726520
696e7374616c6c69
6e67205620692b31
2867292e20546865
2073797374656d20
6973207669727475
616c6c790a73796e
6368726f6e6f7573
2069666620657665
7279206d756c7469
6361737420697320
612076732d6d756c
7469636173742e0a
5468697320646566
696e6974696f6e20
696d706f73657320
6120746f74616c20
6f72646572206265
747765656e207669
65770a6368616e67
657320616e64206d
756c746963617374
732c206275742064
6f6573206e6f7420
656e666f72636520
616e79206f726465
72696e670a626574
7765656e206d6573
7361676573206465
6c69766572656420
696e207468652073
616d652076696577
2e20486f77657665
722c20696e0a7468
6973207061706572
2c20776520667572
7468657220617373
756d652074686174
2074686520766972
7475616c6c792073
796e6368726f6e6f
75730a6c61796572
2064656c69766572
73206d6573736167
6573206163636f72
64696e6720636175
73616c2070726563
6564656e63652028
616e640a74686174
2074686973206775
6172616e74656520
6973207072657365
7276656420616372
6f73732064696666
6572656e74206772
6f757073292e0a54
686520696d706c65
6d656e746174696f
6e206f6620766972
7475616c2073796e
6368726f6e792072
6571756972657320
746865207573650a
6f66206120666169
6c75726520646574
6563746f7220706c
7573207468652065
7865637574696f6e
206f6620736f6d65
20666f726d206f66
20666c7573680a70
726f746f636f6c20
746f20656e737572
6520746861742061
6c6c206d65737361
6765732064656c69
766572656420746f
20736f6d65207072
6f63657373657320
696e206120676976
656e207669657720
6172652064656c69
766572656420746f
20616c6c20636f72
726563742070726f
6365737365730a69
6e20746861742076
696577206265666f
72652061206e6577
2076696577206973
20696e7374616c6c
65642e20546f2067
756172616e746565
0a74686520746572
6d696e6174696f6e
206f662074686520
666c757368207072
6f746f636f6c2c20
7468652074726166
666963206d617920
62652074656d706f
726172696c792073
746f707065642064
7572696e67207468
652070726f746f63
6f6c206578656375
74696f6e2e205468
6973206d61790a6c
65616420746f2061
2073686f72742073
797374656d20736c
6f7720646f776e20
647572696e672074
6865206578656375
74696f6e206f6620
7468650a76696577
206368616e676520
70726f746f636f6c
2c20627574207369
6d706c6966696573
206170706c696361
74696f6e20646573
69676e2028666f72
0a6578616d706c65
2c20612070726f63
6573732074686174
206d756c74696361
7374732061206d65
7373616765206361
6e2064656c697665
720a6974206c6f63
616c6c7920696d6d
6564696174656c79
20776974686f7574
20616e7920667572
7468657220636f6d
7075746174696f6e
206f720a626f6f6b
6b656570696e6729
2e20486f77657665
722c2070726f746f
636f6c7320657869
7374207468617420
616c6c6f77207468
6520636f6e74696e
756174696f6e206f
6620746865206d65
737361676520666c
6f7720647572696e
6720766965772063
68616e676573205b
355d2e2049740a69
7320616c736f2070
6f737369626c6520
746f20696d706c65
6d656e742061206d
656d626572736869
7020736572766963
6520746861742061
6464726573736573
206578706c696369
746c792074686520
70726f626c656d20
6f66206e6574776f
726b207061727469
74696f6e73205b34
2c2031305d2e0a54
686520696d706c65
6d656e746174696f
6e206f6620746865
204c574720736572
76696365206f6e20
746f70206f662073
756368206d656d62
6572736869702073
6572766963657320
6973206f75747369
6465207468652073
636f7065206f6620
7468697320706170
65722e0a0a446f77
6e63616c6c730a4e
616d650a4a6f696e
0a4c656176650a53
656e640a486f6c64
4f6b0a0a50617261
6d65746572730a47
726f757049642067
69642c2050696420
7069640a47726f75
704964206769642c
2050696420706964
0a47726f75704964
206769642c204269
7441727261792064
6174610a47726f75
704964206769640a
0a4e616d650a5669
65770a446174610a
486f6c640a0a5061
72616d6574657273
0a47726f75704964
206769642c205069
644c697374207669
65770a47726f7570
4964206769642c20
506964207372632c
2042697441727261
7920646174610a47
726f757049642067
69640a0a55706361
6c6c730a0a546162
6c6520312e205653
20696e7465726661
6365207072696d69
74697665730a342e
312e3220496e7465
72666163652e2041
207479706963616c
20696e7465726661
6365206f66206120
7669727475616c6c
792073796e636872
6f6e6f7573206c61
79657220636f6e74
61696e7320746865
20666f6c6c6f7769
6e67207072696d69
74697665732c2061
73206c6973746564
0a696e205461626c
6520312028776520
64656e6f74652074
686520646f776e63
616c6c7320776974
682074686520e280
9c2e726571e2809d
2073756666697820
616e642074686520
757063616c6c7320
7769746820746865
20e2809c2e696e74
e2809d2073756666
6978293a204a6f69
6e2e7265712c0a69
7320696e766f6b65
642062792061206d
656d626572207468
61742077616e7473
20746f206a6f696e
20612067726f7570
3b0a4c656176652e
7265712c20696e76
6f6b656420627920
61206d656d626572
2074686174207769
7368657320746f20
6c6561766520610a
67726f75703b2053
656e642e7265712c
2069732075736564
20746f2073656e64
2061207669727475
616c6c792073796e
6368726f6e6f7573
0a6d756c74696361
73743b2056696577
2e696e742c20696e
7374616c6c732061
206e657720766965
773b20446174612e
696e742c0a696e64
6963617465732074
68652064656c6976
657279206f662061
206d756c74696361
73743b20486f6c64
2e696e742c20696e
646963617465730a
7468617420746865
2074726166666963
206d757374206265
2073746f70706564
2074656d706f7261
72696c7920287573
75616c6c792c2077
68656e0a61207669
6577206368616e67
6520696e20746865
207669727475616c
6c792073796e6368
726f6e6f7573206c
6179657220697320
696e2070726f6365
7373293b20616e64
20486f6c644f6b2e
7265712c20697320
7573656420746f20
636f6e6669726d20
74686520486f6c64
2e696e740a696e64
69636174696f6e2e
20486f6c642e696e
7420616e6420486f
6c644f6b2e726571
206d617920626520
68696464656e0a66
726f6d2074686520
7573657220617420
7570706572206c61
796572732e0a0a55
736572206c617965
720a0a4c57470a0a
4c57470a0a4c7767
2e566965772e696e
740a0a4c57470a0a
4c77672e44617461
2e696e740a0a4c57
470a0a4c57470a0a
4c77672e486f6c64
2e696e740a0a4c77
6720496e74657266
6163650a4c77672e
4c656176652e7265
710a0a4c77672e4a
6f696e2e7265710a
0a4c77672e53656e
642e7265710a0a4c
77672e486f6c644f
6b2e7265710a0a44
796e616d6963204d
617070696e672050
726f746f636f6c73
0a0a4877672e5669
65772e696e740a0a
4877672e44617461
2e696e740a0a4877
672e486f6c642e69
6e740a0a48776720
496e746572666163
650a4877672e4c65
6176652e7265710a
0a4877672e4a6f69
6e2e7265710a0a48
57470a0a4877672e
53656e642e726571
0a0a4877672e486f
6c644f6b2e726571
0a0a4857470a0a48
5747204c61796572
0a0a466967757265
20312e204c696768
742d576569676874
2047726f75702073
6572766963652069
6e74657266616365
0a0a0c546865206d
61696e20676f616c
206f66206f757220
64657369676e2069
7320746f20627569
6c64206120736572
7669636520746861
740a616c6c6f7773
207365766572616c
2075736572206772
6f75707320746f20
7368617265207468
652073616d652076
69727475616c6c79
2073796e6368726f
6e6f75732067726f
757020696e206120
7472616e73706172
656e74206d616e6e
65722e2054687573
2c20746865204c69
6768745765696768
742047726f757020
5365727669636520
73686f756c642065
78706f7274207468
652073616d652069
6e74657266616365
2061730a74686520
7669727475616c20
73796e6368726f6e
7920736572766963
652c20617320696c
6c75737472617465
6420696e20466967
75726520312e0a54
6865206265686176
696f72206f662074
686520696e746572
6661636520697320
6465736372696265
6420627920746865
2073746174650a6d
616368696e652069
6c6c757374726174
656420696e204669
6775726520322e20
5768656e20746865
20696e7465726661
6365206973206e6f
740a616374697665
2c20697420697320
696e207468652049
646c652073746174
652e204173206120
726573706f6e7365
20746f2061204a6f
696e2e7265712c0a
6974206c65617665
7320746869732073
7461746520746f20
746865204a6f696e
696e672073746174
6520776865726520
69742072656d6169
6e7320756e74696c
0a61207669657720
7468617420636f6e
7461696e73207468
65206c6f63616c20
70726f6365737320
6973207265636569
7665642e2046726f
6d0a7468656e206f
6e2c207468652069
6e74657266616365
2069732073616964
20746f2062652069
6e2052756e6e696e
672073746174652c
20616e640a63616e
2061636365707420
53656e642e726571
2072657175657374
732061732077656c
6c20617320446174
612e696e7420696e
7465727275707473
2e205768656e2074
6865726520697320
746865206e656564
20746f20696e7374
616c6c2061206e65
7720766965772c20
7468650a75736572
2069732072657175
657374656420746f
2074656d706f7261
72696c792073746f
702073656e64696e
67206e6577206d65
7373616765730a74
68726f7567682074
686520486f6c642e
696e742e20546865
20696e7465726661
63652072656d6169
6e7320696e207468
6520486f6c64696e
6720737461746520
756e74696c207468
6520757365722061
636b6e6f776c6564
6765732074686973
2072657175657374
207468726f756768
0a74686520486f6c
644f6b2e7265712e
2054686520696e74
6572666163652069
73207468656e2069
6e20746865205761
6974566965770a73
746174652c207768
657265206d657373
616765732066726f
6d20746865206375
7272656e74207669
65772063616e2062
652064656c697665
7265642062757420
6e6f206e6577206d
6573736167657320
63616e2062652073
656e742e20576865
6e2061206e657720
766965772069730a
7265636569766564
2028566965772e69
6e74292074686520
696e746572666163
652072657475726e
7320746f20746865
2052756e6e696e67
0a73746174652e20
46696e616c6c792c
2069662074686520
6170706c69636174
696f6e2077616e74
7320746f206c6561
7665207468652067
726f75702069740a
6973737565732061
204c656176652e72
657120616e642074
686520696e746572
6661636520676f65
7320746f20746865
204c656176696e67
0a73746174652c20
7768657265206120
7669657720657863
6c7564696e672074
6865206c6f63616c
2070726f63657373
2066726f6d207468
650a67726f757020
6973206177616974
6564206265666f72
652072657475726e
696e6720746f2074
68652049646c6520
73746174652e0a53
656e642e7265710a
446174612e696e74
0a0a4a6f696e2e72
65710a0a4a6f696e
696e670a49646c65
0a0a49646c650a0a
53656e642e726571
0a446174612e696e
740a0a486f6c6469
6e670a566965772e
696e740a56696577
2e696e740a486f6c
642e696e740a4461
74612e696e740a0a
4c656176696e670a
49646c650a0a486f
6c644f6b2e726571
0a0a52756e6e696e
670a446174612e69
6e740a4c65617665
2e7265710a0a5669
65772e696e740a0a
5761697456696577
0a0a466967757265
20322e2056532069
6e74657266616365
207374617465206d
616368696e650a49
742073686f756c64
206265206e6f7465
6420746861742074
6865206465746169
6c73206f66207468
652061637475616c
20696e7465726661
63650a6f66206561
6368206f66207468
6520746172676574
2061726368697465
637475726573206d
6179206469666665
722e20496e207061
72746963756c6172
2c0a746865206465
7461696c73206f66
2074686520696e74
6572666163652066
6f72207468652063
617365206f662074
686520486f727573
2073797374656d0a
77696c6c20626520
70726573656e7465
6420696e20536563
74696f6e20352e0a
342e312e33205374
6f72696e67206d61
7070696e67732e20
54686520696d706c
656d656e74617469
6f6e206f66207468
650a4c696768742d
5765696768742047
726f757020536572
7669636520726571
7569726573206d61
7070696e67732062
65747765656e0a4c
57477320616e6420
4857477320746f20
62652073746f7265
6420696e20612077
6179207468617420
63616e2062652061
636365737365640a
6279206576657279
2070726f63657373
2e20547970696361
6c6c792c20776865
6e204a6f696e2e72
6571206973206973
737565640a617420
736f6d652070726f
636573732c207468
61742070726f6365
7373206861732074
6f2066696e64206f
7574206966207468
65206173736f6369
61746564204c5747
20697320616c7265
616479206d617070
6564206f6e746f20
736f6d6520485747
202e20496e207468
69730a7061706572
2077652061737375
6d65207468617420
6d617070696e6773
206172652073746f
72656420696e2073
6f6d652065787465
726e616c0a4e616d
6520536572766963
652e20546865206e
616d652073657276
696365206578706f
7274732074687265
65207072696d6974
697665732c0a6173
20696c6c75737472
6174656420696e20
5461626c6520322c
206e616d656c793a
206e732e7365742c
2077686963682065
737461626c697368
65732061206d6170
70696e6720626574
7765656e2061204c
574720616e642061
20485747203b206e
732e726561642c0a
7768696368207265
7475726e73207468
652063757272656e
74206d617070696e
6720666f72206120
676976656e204c57
47203b20616e640a
6e732e7465737473
65742c2077686963
682072657475726e
7320746865206375
7272656e74206d61
7070696e6720666f
7220610a0a4e616d
650a0a506172616d
65746572730a0a52
657475726e730a0a
6e732e7365740a6e
732e726561640a6e
732e746573747365
740a0a4c77674964
206c77672c204877
674964206877670a
4c77674964206c77
670a4c7767496420
6c77672c20487767
4964206877670a0a
6e6f6e650a487767
4964206877670a48
7767496420687767
0a0a5461626c6520
322e204e616d6520
7365727669636520
696e746572666163
65207072696d6974
697665730a676976
656e204c5747206f
722c206966206e6f
2073756368206d61
7070696e67206578
6974732c20657374
61626c6973686564
2061206e65770a6d
617070696e672074
6f20746865204857
4720737065636966
6965642e20546869
73206c6173742070
72696d6974697665
206973206f666665
7265640a626f7468
20746f206d696e69
6d697a6520746865
206e756d62657220
6f66206163636573
73657320746f2074
6865206e616d6520
7365727669636520
616e6420746f2070
726576656e742072
61636520636f6e64
6974696f6e732061
6d6f6e672070726f
6365737365732074
6861740a636f6e63
757272656e746c79
2074727920746f20
65737461626c6973
68206e6577206d61
7070696e67732066
6f72207468652073
616d650a4c574720
2e0a4e6f74652074
6861742c20666f72
20617661696c6162
696c6974792c2074
6865206e616d6520
7365727669636520
6d61792062652072
65706c6963617465
642e204120706f73
7369626c6520696d
706c656d656e7461
74696f6e20776f75
6c64207265706c69
6361746520746865
206e616d650a7365
7276696365206174
2065766572792070
726f636573732c20
6d616b696e672075
7064617465732065
7870656e73697665
2062757420726561
640a6f7065726174
696f6e7320707572
656c79206c6f6361
6c2e0a0a342e320a
0a5661726961626c
65730a0a54686520
70726f746f636f6c
7320757365207468
6520666f6c6c6f77
696e672076617269
61626c657320666f
722065616368204c
5747203a0a6c7767
49642c2074686520
6964656e74696669
6572206f66207468
65204c5747203b20
63757272656e7448
77672c2074686520
6964656e74696669
6572206f66207468
6520485747206f6e
2077686963682074
6865204c57472069
732063757272656e
746c79206d617070
65643b0a6e657874
4877672c20746865
206964656e746966
696572206f662074
6865204857472077
6865726520746865
204c57472069730a
676f696e6720746f
206265206d617070
656420696e207468
6520667574757265
2028757375616c6c
7920746865207361
6d652061730a6375
7272656e74487767
2c20657863657074
207768656e206120
7377697463682069
73206265696e6720
6578656375746564
293b0a6375727265
6e74566965772c20
7468652063757272
656e742067726f75
702076696577206f
6620746865204c57
47203b0a6a6f696e
696e674c6973742c
2061206c69737420
6f662070726f6365
7373657320746861
742077616e742074
6f206a6f696e2074
68650a4c5747203b
206c656176696e67
4c6973742c206120
6c697374206f6620
70726f6365737365
7320746861742077
616e7420746f206c
656176650a746865
204c5747203b2073
746174652c207468
652063757272656e
7420737461746520
6f66207468652070
726f746f636f6c2c
2077686963682069
730a6f6e65206f66
2074686520737461
7465732073686f77
656420696e204669
6775726520323b20
6e61636b732c2073
6f6d652070726f74
6f636f6c73207265
717569726520616e
2061636b6e6f776c
6564676d656e7420
746f20626520636f
6c6c656374656420
66726f6d20657665
72790a67726f7570
206d656d62657220
28746865206e756d
626572206f662061
636b6e6f776c6564
676d656e74732072
656365697665640a
697320636f6c6c65
6374656420696e20
7468697320766172
6961626c65293b20
646f466c7573682c
206120626f6f6c65
616e207661726961
626c652077686963
6820697320736574
207768656e657665
72206120666c7573
68206e6565647320
746f206265207065
72666f726d65643b
0a636f6f7264696e
61746f722c206120
626f6f6c65616e20
666c616720776869
6368206973207365
7420746f20747275
65207768656e0a74
6865206c6f63616c
2070726f63657373
2069732074686520
6f6c64657374206d
656d626572206f66
20746865204c5747
202e0a4164646974
696f6e616c6c792c
20666f7220656163
6820485747202c20
74686520666f6c6c
6f77696e67207661
726961626c65730a
61726520616c736f
20757365643a2068
776749642c207468
65206964656e7469
66696572206f6620
7468652048574720
3b0a63757272656e
74566965772c2074
6865206375727265
6e742067726f7570
2076696577206f66
2074686520485747
203b0a6d61707065
644c7767732c2061
206c697374206f66
204c574773206d61
70706564206f6e74
6f20746869732048
5747203b0a6e486f
6c644f6b2c207468
65206e756d626572
206f6620486f6c64
4f6b2e7265712061
636b6e6f776c6564
676d656e74730a72
656365697665642e
20536f6d6574696d
65732c20696e206f
7264657220746f20
666c757368207468
6520485747202c20
7468652074726166
6669630a6d757374
2062652073746f70
7065642061742061
6c6c206d61707065
64204c574773202c
206e486f6c644f6b
2069732075736564
0a746f206b656570
20747261636b206f
6620686f77206d61
6e79204c57477320
686176652061636b
6e6f776c65646765
6420616e0a6c7767
2e486f6c642e696e
742e0a0a342e330a
0a54686520666c75
73682070726f746f
636f6c0a0a546865
20636f7265206f66
20746865204c6967
68742d5765696768
742047726f757020
696d706c656d656e
746174696f6e2069
730a74686520666c
7573682070726f74
6f636f6c2c207768
6963682069732072
6573706f6e736962
6c6520666f722069
6e7374616c6c696e
672061206e65770a
766965772e205468
652070726f746f63
6f6c20697320696c
6c75737472617465
6420696e20466967
75726520332e2054
68652070726f746f
636f6c0a69732069
6e69746961746564
2062792074686520
636f6f7264696e61
746f722074686174
206d756c74696361
737473206120464c
555348206d65732d
0a0a0c3330300a33
30310a3330320a33
30330a3330350a33
30360a3330370a33
30380a3330390a33
31300a3331310a33
31320a3331330a33
31340a3331360a33
31370a3331380a33
31390a3332300a33
32310a3332320a33
32330a3332340a33
32350a3332360a33
32370a3332380a33
32390a3333300a33
33310a3333320a33
33330a3333340a33
33350a3333360a33
33370a3333380a33
33390a0a3d0a0a77
68656e206c77672e
646f466c75736820
616e64206c77672e
636f6f7264696e61
746f7220616e6420
6c77672e73746174
652052756e6e696e
6720646f0a6c7767
2e646f466c757368
203a2046414c5345
3b206c77672e6e61
636b73203a20303b
0a6877672e53656e
642e726571202820
6c77672e63757272
656e744877672c20
68464c5553482c20
6c77672e6c776749
6469293b0a6f640a
0a3d0a0a3d0a0a77
68656e206877672e
446174612e696e74
202868464c555348
2c206c7767496469
2920726563656976
656420646f0a6c77
672e486f6c642e69
6e742028206c7767
2e6c776749642029
3b206c77672e7374
617465203a20486f
6c64696e673b0a6f
640a0a3d0a0a7768
656e206c77672e48
6f6c644f6b2e7265
712028206c776769
64202920646f0a6c
77672e7374617465
203a205761697456
6965773b0a687767
2e53656e642e7265
712028206c77672e
63757272656e7448
77672c2068464c55
5348204f4b2c206c
77672e6c77674964
6920290a6f640a0a
3d0a0a7768656e20
6877672e44617461
2e696e7420286846
4c555348204f4b2c
206c776749646929
2072656365697665
6420646f0a6c7767
2e6e61636b73203a
206c77672e6e6163
6b73202b20313b0a
6f640a0a3d0a0a3d
0a3d0a3d0a0a7768
656e206c77672e6e
61636b732023206c
77672e637572656e
745669657720616e
64206c77672e636f
6f7264696e61746f
7220646f0a6e6577
56696577203a206c
77672e6375727265
6e7456696577205c
206c77672e6a6f69
6e696e674c697374
202d206c77672e6c
656176696e674c69
73743b0a76696577
4d657373203a2068
564945572c206c77
672e6c776749642c
206c77672e6e6578
744877672c206e65
775669657769203b
0a6877672e53656e
642e726571202820
6c77672e63757272
656e744877672c20
766965774d657373
20293b0a6f640a77
68656e206877672e
446174612e696e74
202868564945572c
206c776749642c20
6e6578744877672c
206e657756696577
6929207265636569
76656420646f0a69
66206c6f63616c20
70726f6365737320
696e206e65775669
6577207468656e0a
6c77672e63757272
656e745669657720
3a206e6577566965
773b0a6c77672e6a
6f696e696e674c69
7374203a206c7767
2e6a6f696e696e67
4c697374202d206e
6577566965773b0a
6c77672e6c656176
696e674c69737420
3a206c77672e6c65
6176696e674c6973
74205c206e657756
6965773b0a6c7767
2e63757272656e74
487767203a206e65
78744877673b0a69
66206c77672e636f
6f7264696e61746f
72207468656e0a6e
732e736574202820
6c77672e6c776749
642c206c77672e63
757272656e744877
6720293b2066690a
6c77672e73746174
65203a2052756e6e
696e673b0a656c73
650a6c77672e7374
617465203a204964
6c653b0a66690a6c
77672e566965772e
696e742028206c77
672e63757272656e
745669657720293b
0a6f640a0a3d0a3d
0a3d0a3d0a0a3d0a
3d0a0a342e340a0a
5468652063726561
74652f6a6f696e20
70726f746f636f6c
0a0a546865206372
656174652f6a6f69
6e2070726f636564
75726520636f6e73
69737473206f6620
74776f206d61696e
2073746570732c20
61730a696c6c7573
7472617465642069
6e20466967757265
20342e20496e2074
6865206669727374
20737465702c2061
206d617020697320
65737461626c6973
6865640a62657477
65656e2074686520
4c574720616e6420
736f6d6520485747
20286c2e20343031
292e20546f206d69
6e696d697a650a61
6363657373657320
746f20746865206e
616d652073657276
6963652c20746865
206a6f696e696e67
2070726f63657373
2070726f706f7365
730a61206d617070
696e672062617365
64206f6e20697473
206f776e206c6f63
616c204857477320
6163636f7264696e
6720746f20746865
0a6d617070696e67
2068657572697374
696373205b31325d
2e205468656e2c20
696e20612073696e
676c652061636365
737320746f207468
650a6e616d652073
6572766963652069
7420636f6d6d6974
732074686973206d
617070696e67206f
722c20696e207468
6520636173652077
686572650a746865
204c574720697320
616c726561647920
6d6170706564206f
6e746f20736f6d65
206f746865722048
57472c206f627461
696e730a74686520
6578697374696e67
206d617070696e67
20286c2e20343034
292e204164646974
696f6e616c6c792c
2069662074686520
70726f6365737320
69730a6e6f742061
206d656d62657220
6f66207468652073
656c656374656420
485747202c206974
206a6f696e732074
6865204857472062
65666f72650a6578
65637574696e6720
746865207365636f
6e64207374657020
286c2e2034303529
2e0a343030207768
656e206c77672e4a
6f696e2e72657120
28206c776749642c
2070726f63657373
4964202920646f0a
3430310a2f2f2066
6972737420737465
700a3430320a6c77
672e6c7767496420
3a3d206c77674964
3b206c77672e7374
617465203a3d2049
646c653b0a343033
0a6c77672e637572
72656e7448776720
3a3d2070726f706f
73654c6f63616c4d
617070696e672028
293b0a3430340a6c
77672e6375727265
6e74487767203a3d
206e732e74657374
7365742028206c77
6749642c206c7767
2e63757272656e74
48776720293b0a34
30350a6966206c6f
63616c2070726f63
657373206e6f7420
6d656d626572206f
6620687767496420
7468656e0a343036
0a6877672e4a6f69
6e2e726571202820
6c77672e63757272
656e744877672029
3b0a3430370a7761
6974206877672e56
6965772e696e7420
286c77672e637572
72656e7448776729
3b0a3430380a6669
0a3430390a6c6f63
616c4d6170202820
6c77672e6c776769
642c206c77672e63
757272656e744877
6720293b0a343130
0a2f2f207365636f
6e6420737465700a
343131206c77672e
7374617465203a3d
204a6f696e696e67
3b0a3431320a6877
672e53656e642e72
657120286c77672e
63757272656e7448
77672c20684a4f49
4e2c206c77672e6c
776749642c207072
6f63657373496469
20293b0a34313320
6f640a3431342077
68656e206877672e
446174612e696e74
2028684a4f494e2c
206c776749642c20
70726f6365737349
6469292072656365
6976656420646f0a
3431350a6c77672e
6a6f696e696e674c
697374203a3d206c
77672e6a6f696e69
6e674c6973742002
2070726f63657373
49643b0a3431360a
6c77672e646f466c
757368203a3d2054
5255453b0a343137
206f640a0a466967
75726520332e2046
6c7573682070726f
746f636f6c0a0a46
696775726520342e
2054686520637265
6174652f6a6f696e
2070726f746f636f
6c0a0a7361676520
7768656e20746865
20646f466c757368
20666c6167206973
2073657420287765
2077696c6c206c61
7465722073686f77
207468650a736365
6e6172696f732074
6861742074726967
6765722074686973
20636f6e64697469
6f6e292e20576865
6e2074686520464c
5553480a69732072
656365697665642c
2074686520617070
6c69636174696f6e
2069732072657175
657374656420746f
2073746f70207365
6e64696e670a7468
726f756768207468
6520486f6c642e69
6e7420696e746572
7275707420286c2e
20333037292e2057
68656e2074686520
636f72726573706f
6e64696e6720486f
6c644f6b2e726571
2069732072656365
697665642066726f
6d20746865206170
706c69636174696f
6e2c0a746865204c
5747206d656d6265
722061636b6e6f77
6c65646765732074
686520464c555348
206d657373616765
20776974680a6120
464c555348204f4b
20286c2e20333132
292e205468652070
726f746f636f6c20
6973207465726d69
6e61746564206279
0a74686520636f6f
7264696e61746f72
2074686174207365
6e64732061205649
4557206d65737361
676520617320736f
6f6e20617320610a
464c555348204f4b
2069732072656365
697665642066726f
6d20657665727920
6d656d6265722028
6c2e20333230292e
205768656e0a7468
652056494557206d
6573736167652069
7320726563656976
65642c2074686520
7472616666696320
697320726573756d
65642062790a6465
6c69766572696e67
20746865206e6577
2076696577207468
726f756768207468
65206c77672e5669
65772e696e742069
6e74657272757074
20286c2e20333236
292e20496e206164
646974696f6e2074
6f20746865206e65
77206d656d626572
73686970206f6620
7468650a67726f75
702c207468652056
494557206d657373
6167657320646973
73656d696e617465
7320746865206964
656e74697479206f
66207468650a4857
4720746861742073
686f756c64206265
2075736564206475
72696e6720746865
206e657874207669
657720286c2e2033
3331292e0a546875
732c207468652066
6c7573682070726f
746f636f6c206973
207573656420626f
746820746f206368
616e676520746865
2067726f75700a6d
656d626572736869
7020616e6420746f
2065786563757465
2074686520737769
7463682070726f74
6f636f6c2e204966
2061206d656d6265
722070726f636573
73206661696c7320
6f72206265636f6d
657320756e726561
636861626c652077
68696c6520657865
637574696e670a74
686520666c757368
2070726f746f636f
6c2c20616e6f7468
657220726f756e64
206f662074686520
666c757368207072
6f746f636f6c2073
74617274730a696d
6d6564696174656c
792c20636f6c6c65
6374696e6720464c
555348204f4b2072
65706c6965732066
726f6d2063757272
656e746c790a6176
61696c61626c6520
6d656d626572732e
205468657265666f
7265207468652066
6c7573682070726f
746f636f6c206361
6e206e6f740a626c
6f636b2e0a0a5468
65207365636f6e64
207374657020636f
6e7369737473206f
662073656e64696e
672061204a4f494e
206d657373616765
20746f0a616c6c20
6d656d6265727320
6f66207468652048
574720286c2e2034
3132292e20576865
6e20746865204a4f
494e206d65737361
67650a6973207265
6365697665642c20
746865206964656e
746966696572206f
6620746865206a6f
696e696e67207072
6f63657373206973
2061646465640a74
6f20746865206a6f
696e696e674c6973
7420616e6420646f
466c75736820666c
6167206973206163
7469766174656420
286c2e0a34313429
2e2054686520636f
6f7264696e61746f
72206f6620746865
204c57472077696c
6c207468656e2074
7269676765722061
20666c7573680a70
726f746f636f6c20
77686963682c2069
6e207475726e2c20
77696c6c20696e73
74616c6c2061206e
657720766965772e
0a0a342e350a0a54
6865206c65617665
2070726f746f636f
6c0a0a546865206c
656176652070726f
6365647572652069
6e20466967757265
2035206973207369
6d696c617220746f
20746865206a6f69
6e696e670a70726f
746f636f6c2e2054
68652070726f6365
73732073696d706c
792073656e647320
61204c4541564520
6d6573736167650a
746f20616c6c206d
656d62657273206f
6620746865204857
4720286c2e203530
33292e205768656e
20746865204c4541
56450a6d65737361
6765206973207265
6365697665642c20
746865206964656e
746966696572206f
6620746865207072
6f63657373206973
2061646465642074
6f0a746865206c65
6176696e674c6973
7420616e64207468
6520646f466c7573
6820666c61672069
7320616374697661
74656420286c2e0a
353036292e205468
6520636f6f726469
6e61746f72206f66
20746865204c5747
2077696c6c207468
656e207472696767
6572206120666c75
73680a70726f746f
636f6c2077686963
682c20696e207475
726e2c2077696c6c
20696e7374616c6c
2061206e65772076
6965772e0a0a342e
360a0a546865206d
6573736167652070
617373696e672070
726f746f636f6c0a
0a54686520707269
6e6369706c65206f
6620746865206d65
7373616765207061
7373696e67207072
6f746f636f6c2069
7320766572792073
696d706c652e2054
6865204c57472073
6572766963652073
696d706c7920656e
63617073756c6174
657320746865204c
5747206d65737361
67650a0a0c353030
0a3530310a353033
0a3530340a353035
0a3530360a353037
0a3530380a353039
0a0a7768656e206c
77672e4c65617665
2e7265712028206c
776749642c207072
6f63657373496420
2920646f0a6c7767
2e7374617465203a
3d204c656176696e
673b0a6877672e53
656e642e72657120
28206c77672e4375
7272656e74487767
2c20684c45415645
2c206c776749642c
2070726f63657373
49646920293b0a6f
640a7768656e2068
77672e446174612e
696e742028684c45
4156452c206c7767
49642c2070726f63
6573734964692920
7265636569766564
20646f0a6c77672e
6c656176696e674c
697374203a3d206c
77672e6c65617669
6e674c6973742002
2070726f63657373
49643b0a6c77672e
646f466c75736820
3a3d20545255453b
202f2f2077696c6c
2074726967676572
20666c7573680a6f
640a0a4669677572
6520352e20546865
206c656176652070
726f746f636f6c0a
696e206120646564
6963617465642068
444154412c206c77
6769642c20646174
6169206d65737361
6765207768696368
206973206d756c74
6963617374206f6e
2074686520485747
202e204f6e207468
6520726563697069
656e742073696465
2c207768656e2073
756368206d657373
6167650a69732072
6563656976656420
746865206c776769
6420706172742069
73206578616d696e
656420616e642074
6865206461746120
706172742069730a
666f727761726465
6420746f20746865
2073706563696669
6564204c5747202e
0a41206d65737361
6765206d756c7469
63617374206f6e20
612048574720636f
756c642062652070
6572666f726d6564
207573696e670a74
776f206d61696e20
617070726f616368
65732e20496e2074
6865206669727374
20617070726f6163
682c20746865206d
6573736167652069
730a6d756c746963
61737420746f2061
6c6c206d656d6265
7273206f66207468
652048574720616e
64207468656e2065
6163682073697465
20746861740a6973
206e6f742061206d
656d626572206f66
2074686520636f6e
6365726e6564204c
5747206469736361
7264732074686520
6d6573736167652e
0a54686973206861
732074776f206469
73616476616e7461
6765733a0a0a0220
6974206d616b6573
20746865206d756c
746963617374206d
6f72652065787065
6e736976652c2073
696e6365206d6f72
652064657374696e
6174696f6e207369
7465732061726520
7573656420746861
6e2074686f736520
7374726963746c79
206e65656465643b
0a0220697420636f
6e73756d65732072
65736f7572636573
20746f2068616e64
6c65207468652072
6563656976656420
6d65737361676573
0a61742074686f73
652073697465732e
0a546865206f7468
657220617070726f
61636820636f6e73
69737473206f6620
7573696e6720736f
6d6520666f726d20
6f662073656c6563
7469766520616464
72657373206d6563
68616e69736d2c20
776869636820616c
6c6f777320746f20
6d756c7469636173
742061206d657373
61676520696e2061
20485747206a7573
7420746f20612073
7562736574206f66
20616c6c20746865
206d656d62657273
206f662074686520
485747202e0a416e
20617070726f6163
682073696d696c61
7220746f20746869
7320776173207573
656420696e207468
652044656c74612d
34205b31315d2061
6e640a4973697320
6c69676874776569
6768742067726f75
70206d656368616e
69736d73205b365d
2e0a0a342e370a0a
5468652073776974
63682070726f746f
636f6c0a0a576869
6c65207468697320
706170657220646f
6573206e6f742066
6f637573206f6e20
706f6c6963696573
206f722068657572
6973746963730a66
6f72206465636964
696e67207768656e
20746f206368616e
67652061204c5747
20746f2048574720
6d617070696e672c
207468650a616c67
6f726974686d2066
6f72207377697463
68696e6720626574
7765656e20485747
7320697320627269
65666c7920646573
6372696265642e0a
417373756d652074
6861742061206769
76656e204c574720
2c206c776749642c
206e656564732074
6f20626520737769
74636865640a6672
6f6d206f6e652048
5747202c20687767
46726f6d2c20746f
20616e6f74686572
20485747202c2068
7767546f2e205468
650a737769746368
2070726f746f636f
6c20697320696e69
7469617465642062
7920736f6d652070
726f63657373206d
656d626572206f66
0a6c776749642e20
496e206f72646572
20746f20696e666f
726d206f74686572
206d656d62657273
206f66206c776749
64206f6620746865
0a7374617274206f
6620746865207377
69746368696e6720
70726f6365647572
652c206974206d75
6c74696361737473
20616e20684f5045
4e2c0a6c77674964
2c20687767546f69
206d657373616765
206f6e2068776746
726f6d20286c2e20
363031292e205768
656e20746869730a
6d65737361676520
6973207265636569
7665642c20616c6c
206d656d62657273
206f66206c776749
6420636865636b20
696620746865790a
61726520616c7265
616479206d656d62
657273206f662068
7767546f20616e64
2c20696e20636173
6520746865792061
7265206e6f742c0a
6a6f696e20746869
732067726f757020
286c2e2036303329
2e0a5768656e2061
206d656d62657220
6f6620746865204c
5747206465746563
7473207468617420
616c6c206d656d62
6572732068617665
0a6a6f696e656420
687767546f2c2069
7420736574732074
6865207661726961
626c65206e657874
48776720616e6420
6163746976617465
730a74686520646f
466c75736820666c
616720286c2e2036
3038292e20417320
696e207468652070
726576696f757320
63617365732c2074
6869730a77696c6c
2074726967676572
2074686520657865
637574696f6e206f
662074686520666c
7573682070726f74
6f636f6c20776869
63682077696c6c0a
696e7374616c6c20
61206e6577207669
657720616e642063
6f6d6d6974207468
65206e6577206d61
7070696e672e2054
6865207377697463
680a70726f746f63
6f6c206973207072
6573656e74656420
696e204669677572
6520362e0a0a3630
30207768656e206c
77674964206e6565
647320746f206265
2073776974636865
6420746f20687767
546f20646f0a3630
310a6877672e5365
6e642e7265712028
206c77672e637572
72656e744877672c
20684f50454e2c20
6c776749642c2068
7767546f6920293b
0a3630320a776865
6e206877672e4461
74612e696e742028
684f50454e2c206c
776749642c206877
67546f6929207265
6365697665642064
6f0a3630330a3630
340a2f2f204f5045
4e20697320726563
6569766564207468
726f756768206877
6746726f6d0a3630
350a696620492061
6d206e6f74206d65
6d626572206f6620
687767546f207468
656e0a3630360a68
77672e4a6f696e2e
7265712028206877
67546f20293b2066
690a3630370a6f64
0a3630380a776865
6e206c77672e6375
7272656e74566965
7720032068776754
6f2e63757272656e
745669657720646f
0a3630390a6c7767
2e6e657874487767
203a3d2068776754
6f3b206c77672e64
6f466c757368203a
3d20545255453b0a
3631300a6f640a36
3131206f640a0a46
696775726520362e
2054686520737769
7463682070726f74
6f636f6c0a0a342e
380a0a5468652066
61696c7572652068
616e646c696e6720
70726f746f636f6c
0a0a546865206261
736963206661696c
7572652068616e64
6c696e672070726f
746f636f6c206973
2071756974652073
696d706c65206265
6361757365206d6f
7374206f66207468
6520636f6d706c65
7869747920697320
68616e646c656420
6279207468652076
69727475616c6c79
0a73796e6368726f
6e6f757320736572
766963652e205768
656e657665722061
206661696c757265
2069732064657465
6374656420627920
610a485747202c20
6120486f6c642e69
6e74206973206765
6e65726174656420
696e206f72646572
20746f2073746f70
2074686520747261
6666696320666c6f
7720286c2e203730
30292e2054686973
20696e7465727275
7074206d75737420
6265206d756c7469
706c657865642074
6f0a616c6c204c57
4773206d61707065
64206f6e746f2074
6861742048574720
2873656520466967
7572652037292e20
546865204c696768
7457656967687420
47726f7570205365
7276696365207761
69747320666f7220
616e2061636b6e6f
776c6564676d656e
742066726f6d0a65
76657279204c5747
2028696e2d747261
6e736974206d6573
7361676573206361
6e207374696c6c20
62652073656e7420
6f72207265636569
766564290a616e64
207468656e206163
6b6e6f776c656467
6573207468652048
6f6c642e696e7420
696e746572727570
7420286c2e203730
36292e0a46696e61
6c6c792c20776865
6e2061206e657720
7669657720697320
696e7374616c6c65
6420696e20746865
20485747202c2074
6865206661696c65
640a70726f636573
7365732061726520
72656d6f76656420
66726f6d20746865
207669657773206f
6620616c6c206d61
70706564204c5747
7320286c2e0a3731
33292e0a0a373030
0a3730310a373032
0a3730330a373034
0a3730350a373036
0a3730370a373038
0a3730390a373130
0a3731310a373132
0a3731330a373134
0a3731350a373136
0a3731370a373138
0a3731390a373230
0a3732310a373232
0a3732330a373234
0a0a7768656e2068
77672e486f6c642e
696e742028687767
2920646f0a666f72
616c6c206c776720
696e206877672e6d
61707065644c7767
0a6c77672e486f6c
642e696e7420286c
7767293b0a656e64
666f720a6f640a77
68656e206c77672e
486f6c644f6b2e72
657120286c776729
20646f0a6877672e
6e486f6c644f6b20
3a3d206877672e6e
486f6c644f6b202b
313b0a6966206877
672e6e486f6c644f
6b2023206877672e
6d61707065644c77
67207468656e0a68
77672e486f6c644f
6b2e726571202868
77672e6877674964
293b0a66690a6f64
0a0a3d0a0a776865
6e206877672e5669
65772e696e742028
68776749642c206e
6577766965772920
646f0a6877672e63
757272656e745669
6577203a3d206e65
77766965773b0a66
6f72616c6c206c77
6720696e20687767
2e6d61707065644c
776720646f0a6c77
672e63757272656e
7456696577203a20
6c77672e63757272
656e745669657720
5c206e6577566965
773b0a6c77672e6a
6f696e696e674c69
7374203a206c7767
2e6a6f696e696e67
4c697374205c206e
6577566965773b0a
6c77672e6c656176
696e674c69737420
3a206c77672e6c65
6176696e674c6973
74205c206e657756
6965773b0a6c7767
2e566965772e696e
7420286c77672e6c
776749642c206c77
672e637572656e74
56696577293b0a69
66206c6f63616c20
70726f6365737320
6f6c646573742069
6e206c77672e6375
7272656e74566965
77207468656e0a6c
77672e636f6f7264
696e61746f72203a
3d20545255453b0a
66690a656e64666f
720a6f640a0a3d0a
3d0a3d0a0a466967
75726520372e2046
61696c7572652068
616e646c696e670a
0a0c342e390a0a53
796e6368726f6e69
7a6174696f6e2077
6974682074686520
6e616d6520736572
7665720a0a576865
6e20612073776974
6368206f63637572
732c20746865206e
616d652073657276
6963652069732069
6e666f726d656420
6f66207468650a6e
6577206d61707069
6e6720736f207468
6174206675727468
6572206a6f696e73
2061726520646972
656374656420746f
2074686520617070
726f707269617465
20485747202e2041
2070726f626c656d
206f66207573696e
6720616e20657874
65726e616c206e61
6d65207365727669
63650a746f206b65
657020696e666f72
6d6174696f6e2061
626f757420746865
206d617070696e67
206265747765656e
204c57477320616e
640a48574773202c
2069732074686174
2069742069732064
6966666963756c74
20746f2067756172
616e746565207468
61742070726f6365
7373657320616c77
6179730a72656164
2075702d746f2d64
61746520696e666f
726d6174696f6e2e
20546f2061766f69
6420657870656e73
6976652073796e63
68726f6e697a6174
696f6e2070726f63
6564757265732c20
776520616c6c6f77
2070726f63657373
657320746f207265
6164206f75746461
7465640a696e666f
726d6174696f6e20
28666f7220696e73
74616e63652c2077
68656e2061207265
616420746f207468
65206e616d652073
6572766963652069
730a657865637574
656420636f6e6375
7272656e746c7920
7769746820746865
2065786563757469
6f6e206f66207468
6520737769746368
2070726f746f636f
6c292e20546f2063
6f6d70656e736174
6520666f72207468
69732c20616c6c20
6d656d6265727320
6f66206120485747
206b6565700a696e
666f726d6174696f
6e2061626f757420
746865206e657720
6d617070696e6773
206f662070726576
696f75736c79206d
61707065640a4c57
4773202e20546869
7320696e666f726d
6174696f6e206973
2075736564206c69
6b65206120666f72
776172642d706f69
6e7465722c20746f
0a72656469726563
7420612070726f63
6573732074686174
206973207573696e
67206f7574646174
6564206d61707069
6e6720696e666f72
6d6174696f6e2e20
466f72776172642d
706f696e74657273
2061726520646973
6361726465642062
61736564206f6e20
7468652070617373
6167650a6f662074
696d652e20546875
732c207765206173
73756d6520746861
74207768656e2061
2070726f63657373
2067657473206120
6d617070696e6720
66726f6d20746865
206e616d65207365
72766963652c2074
68697320696e666f
726d6174696f6e20
69732076616c6964
206a75737420666f
720a736f6d652072
6561736f6e61626c
6520706572696f64
206f662074696d65
2028696e20736f6d
652073656e73652c
20697420776f726b
732061730a61206c
65617365205b375d
292e0a0a342e3130
20496e7465726c65
6176696e67206f66
2070726f746f636f
6c730a5468652066
696e616c2070726f
746f636f6c732061
726520736c696768
746c79206d6f7265
20636f6d706c6578
207468616e207468
650a6f6e65732070
726573656e746564
20696e2074686973
2070617065722064
756520746f207468
6520706f73736962
6c6520696e746572
6c656176696e670a
6f66207468652066
61696c7572652068
616e646c696e6720
70726f746f636f6c
2077697468207468
652072656d61696e
696e672070726f74
6f636f6c732e2054
686520636f6d706c
6574652070726f74
6f636f6c73206172
65206e6f74207072
6573656e74656420
6865726520647565
20746f0a6c61636b
206f662073706163
6520627574206361
6e20626520666f75
6e6420696e207468
652066756c6c2072
65706f7274205b31
325d2e0a0a350a35
2e310a0a416e2069
6d706c656d656e74
6174696f6e20696e
20486f7275730a48
6f727573206f7665
72766965770a0a48
6f72757320697320
612067726f757020
636f6d6d756e6963
6174696f6e207379
7374656d20776869
6368206f66666572
730a677265617420
666c65786962696c
69747920696e2074
68652070726f7065
7274696573207072
6f76696465642062
792070726f746f63
6f6c732e2049740a
7573657320766972
7475616c6c792073
796e6368726f6e6f
75732070726f746f
636f6c7320746f20
737570706f727420
64796e616d69630a
67726f7570206d65
6d62657273686970
2c206d6573736167
65206f7264657269
6e672c2073796e63
68726f6e697a6174
696f6e20616e640a
6661696c75726520
68616e646c696e67
2e0a496e20746865
20486f7275732061
7263686974656374
7572652c2070726f
746f636f6c732061
726520636f6e7374
7275637465642064
796e616d6963616c
6c79206279207374
61636b696e67206d
6963726f70726f74
6f636f6c732c2077
6869636820737570
706f727420612063
6f6d6d6f6e20696e
746572666163652e
2045616368206d69
63726f70726f746f
636f6c206f666665
7273206120736d61
6c6c20696e746567
72616c0a73657420
6f6620636f6d6d75
6e69636174696f6e
2070726f70657274
6965732c20616e64
20697320696d706c
656d656e74656420
617320610a6c6179
657220696e20486f
7275732e20456163
68206c6179657220
6861732061207365
74206f6620656e74
727920706f696e74
7320666f720a646f
776e63616c6c2061
6e6420757063616c
6c2070726f636564
757265732064656e
6f74656420776974
682074686520e280
9c2e726571e2809d
0a616e6420e2809c
2e696e74e2809d20
7375666669786573
2072657370656374
6976656c792e0a48
6f7275732070726f
7669646573206120
6c61726765207365
74206f66206d6963
726f70726f746f63
6f6c732e20546865
20666f6c6c6f7769
6e67206172652072
656c617465642074
6f206f7572206465
7369676e206f6620
746865204c696768
742d576569676874
2047726f75700a53
6572766963652e20
54686520434f4d20
6c61796572207072
6f76696465732074
686520486f727573
20696e7465726661
63650a6f76657220
6f74686572206c6f
772d6c6576656c20
636f6d6d756e6963
6174696f6e20696e
7465726661636573
2028696e636c7564
696e670a49502c20
5544502c2041544d
2c2074686520782d
6b65726e656c2061
6e642061206e6574
776f726b2073696d
756c61746f72292e
205468650a4e414b
206c617965722070
726f766964657320
72656c6961626c65
204649464f20756e
696361737420616e
64206d756c746963
6173742e0a546865
2046524147206c61
79657220696d706c
656d656e74732066
7261676d656e7461
74696f6e20616e64
207265617373656d
626c790a0a6f6620
6d65737361676573
2e20546865204d42
5253484950206c61
7965722067756172
616e746565732076
69727475616c2073
796e6368726f6e79
2e20546865204341
5553414c20616e64
20544f54414c206c
6179657273206f66
6665722063617573
616c6c790a616e64
20746f74616c6c79
206f726465726564
206d657373616765
2064656c69766572
7920726573706563
746976656c792e0a
0a352e320a0a486f
7275732076697274
75616c2073796e63
68726f6e79207072
6f746f636f6c730a
0a546865204d4252
53484950206c6179
657220696e20486f
72757320696d706c
656d656e74732076
69727475616c6c79
2073796e6368726f
6e6f7573206d656d
6265727368697020
616e64206d657373
6167652061746f6d
69636974792e2044
7572696e67206d65
7373616765207472
616e736d69737369
6f6e2c206d656d62
657273206f662074
68652067726f7570
2061726520636f6e
7374616e746c7920
636f6c6c65637469
6e67207374616269
6c69747920696e66
6f726d6174696f6e
206f6620616c6c20
746865206d657373
6167657320746865
7920686176650a73
656e74206f722072
656365697665642e
2041206d65737361
6765206973207374
61626c6520696620
6974206861732062
65656e2072656365
697665640a627920
6576657279206d65
6d626572206f6620
7468652067726f75
702e205669727475
616c2073796e6368
726f6e7920697320
656e737572656420
6279206120666c75
73682070726f746f
636f6c2074686174
20697320636f6e63
65707475616c6c79
2073696d696c6172
20746f2074686174
0a70726573656e74
656420696e207468
6973207061706572
2e20486f77657665
722c207468652069
6d706c656d656e74
6174696f6e206f66
207468650a666c75
73682070726f746f
636f6c7320696e20
486f7275732c2062
6f746820696e2074
6865204d42525348
4950206c61796572
20616e6420696e0a
746865204c574720
6c617965722c2075
736573206120636f
6f7264696e61746f
7220626173656420
617070726f616368
20746f2072656475
63650a746865206e
756d626572206f66
206d756c74696361
7374206d65737361
6765732065786368
616e6765642e0a49
6e20746865204d42
5253484950206c61
7965722c20746865
206f6c6465737420
6d656d6265722069
6e20612076696577
0a69732064657369
676e617465642061
732074686520636f
6f7264696e61746f
722e20447572696e
672061206d656d62
6572736869700a63
68616e67652c2074
686520636f6f7264
696e61746f722064
6563696465732077
68696368206d656d
6265727320617265
20636f7272656374
20616e642073686f
756c642062652069
6e636c7564656420
696e20746865206e
6578742076696577
2e2049742062726f
616463617374730a
6120464c55534820
6d65737361676520
746f207468652073
7572766976696e67
206d656d62657273
2c20726571756573
74696e670a746865
6d20746f2073746f
702073656e64696e
67206d6573736167
657320616e642074
6f2069676e6f7265
206d657373616765
732066726f6d0a69
6e636f7272656374
206d656d62657273
2e2055706f6e2072
656365697074206f
66206120464c5553
482c2061206d656d
6265720a666f7277
6172647320746f20
74686520636f6f72
64696e61746f7220
69747320756e7374
61626c65206d6573
736167657320666f
6c6c6f7765640a62
79206120464c5553
48204f4b206d6573
7361676520287468
657365206d657373
6167657320617265
20706f696e742d74
6f706f696e74292e
205768656e207468
6520636f6f726469
6e61746f72206861
7320726563656976
6564206120464c55
5348204f4b0a6d65
7373616765206672
6f6d20616c6c2063
6f72726563742070
726f636573736573
20696e2074686520
63757272656e7420
766965772c206974
0a726562726f6164
6361737473207468
6f736520756e7374
61626c65206d6573
73616765732e2055
706f6e2072656365
6976696e67207265
62726f6164636173
74206d6573736167
65732c2074686520
6d656d6265727320
69676e6f72652074
686f736520697420
68617320616c7265
6164790a64656c69
76657265642e2054
686520666c757368
20697320636f6d70
6c65746564206166
74657220616c6c20
746865206d657373
6167657320686176
650a73746162696c
697a65642e204174
207468697320706f
696e742061206e65
772076696577206d
617920626520696e
7374616c6c65642e
0a496e206f757220
696d706c656d656e
746174696f6e2c20
746865204c574720
6c61796572206973
20707574206f6e20
746f70206f660a74
686520e2809c4d42
52534849503a4652
41473a4e414b3a43
4f4de2809d207374
61636b2e20546865
204c574720666c75
73680a70726f746f
636f6c2069732069
6d706c656d656e74
6564207573696e67
206120636f6f7264
696e61746f722062
6173656420736f6c
7574696f6e0a7768
6572652074686520
464c555348204f4b
20616e6420564945
57206d6573736167
6573206361727279
2074686520636175
73616c0a64657065
6e64656e63696573
2072657175697265
6420746f20617574
6f6d61746963616c
6c7920666c757368
2064617461206d65
7373616765732e0a
43757272656e746c
792c20616c6c204c
5747206d65737361
6765732061726520
73656e7420696e20
6d756c7469636173
7420746f20616c6c
206d656d62657273
206f662074686520
485747202e0a0a35
2e330a0a50657266
6f726d616e63650a
0a576520636f6e64
7563746564207468
6520706572666f72
6d616e6365207465
73747320666f7220
4c574720696e2048
6f7275730a6f6e20
612073797374656d
206f662053554e20
5370617263313020
776f726b73746174
696f6e732072756e
6e696e672053756e
4f530a342e312e33
2c20636f6e6e6563
7465642062792061
206c6f6164656420
31304d2062707320
45746865726e6574
2e20546865206c6f
776c6576656c2070
726f746f636f6c20
7765207573656420
6973205544502f49
5020776974682074
6865204465657269
6e67206d756c7469
636173740a657874
656e73696f6e2e20
5765207465737465
64206e206964656e
746963616c20666f
75722d6d656d6265
722067726f757073
207573696e670a66
6f7572206d616368
696e657320776974
68206f6e65207072
6f63657373207065
72206d616368696e
652e0a576520636f
6e64756374656420
7468726565206469
66666572656e7420
7479706573206f66
2074657374732074
6f206d6561737572
65207468650a696d
70616374206f6620
4c57472053657276
696365206f6e3a20
2869292067726f75
70206d656d626572
73686970206f7065
726174696f6e2c0a
2869692920666169
6c7572652068616e
646c696e6720616e
6420286969692920
6461746120747261
6e736665722e2049
6e20746865736520
74657374732c2065
766572792067726f
7570206d656d6265
7220686173207468
6520737461636b20
e2809c4c57473a4d
4252534849503a46
5241473a4e414b3a
434f4de2809d2075
6e6465726e656174
682069742e20546f
206576616c756174
6520746865206566
666563746976656e
6573730a0a0c6f66
206f757220617070
726f6163682c2074
6865206578616374
6c792073616d6520
7465737473207765
72652072756e2077
6974686f75740a74
6865204c5747206c
617965722e20496e
2074686520726573
74206f6620746865
2073656374696f6e
2c20616c6c207468
6520666c75736820
74696d650a6d6561
737572656d656e74
7320617265207461
6b656e2061742074
686520636f6f7264
696e61746f722e20
5768656e2061206d
656d6265720a6a6f
696e732c20746865
20666c7573682074
696d65206973206d
6561737572656420
6265747765656e20
61204a6f696e2e72
657120616e640a61
20566965772e696e
742e205768656e20
61206d656d626572
206c65617665732c
2074686520666c75
73682074696d6520
69730a6d65617375
7265642062657477
65656e2074686520
7265636569707420
6f6620746865204c
45415645206d6573
7361676520616e64
0a74686520666f6c
6c6f77696e672056
6965772e696e742e
0a0a48574720e288
92e288920a0a3235
30300a0a4a6f696e
54696d654c574720
287001206e29203d
20466c7573684857
4720287029202b20
466c7573684c5747
202870292006206e
0a0a323030300a4c
574720e288920a0a
6a6f696e2074696d
6520286d73656329
0a0a4a6f696e5469
6d65485747202870
01206e29203d2046
6c75736848574720
2870292006206e0a
5768656e20746865
204c5747206c6179
6572206973207573
65642c2074686973
2074696d65206361
6e20626520657870
7265737365640a61
7320287768657265
20466c7573684c57
4720287029206973
2074686520616d6f
756e74206f662074
696d6520666f7220
656163680a4c5747
20666c757368293a
0a0a4a6f696e696e
67206e2067726f75
7073206173207468
6520746869726420
6d656d6265722e0a
333030300a0a3135
30300a0a31303030
0a0a3530300a0a30
0a300a0a6f662065
7865637574696f6e
73206f6620746865
20666c7573682070
726f746f636f6c2e
20576974686f7574
20746865204c5747
206c617965722c0a
7468652074696d65
20666f72206a6f69
6e696e67206e2067
726f757073206f66
2070203b2031206d
656d626572732c20
64656e6f7465640a
4a6f696e54696d65
4857472028700120
6e292c2063616e20
626520617070726f
78696d6174656c79
3120657870726573
7365642061730a66
6f6c6c6f77732028
776865726520466c
7573684857472028
7029206973207468
6520616d6f756e74
206f662074696d65
20666f7220656163
680a48574720666c
757368207768656e
2074686520726573
756c74696e672067
726f75702073697a
652069732070293a
0a0a32300a0a3430
0a0a36300a0a3830
0a3130300a313230
0a3134300a746f74
616c2023206f6620
67726f757073206e
0a4a6f696e696e67
206e2067726f7570
7320617320746865
20666f7572746820
6d656d6265722e0a
0a3136300a0a3138
300a0a3230300a0a
333530300a0a3330
30300a0a32353030
0a0a496e20746869
7320636173652c20
7768656e20746865
2070726f63657373
206a6f696e732074
6865206669727374
206f662074686520
6e0a4c574773202c
206974206a6f696e
732074686520756e
6465726c79696e67
2048574720666972
73742e2041732061
20726573756c742c
207468650a666972
7374206a6f696e20
696e766f6c766573
2061204857472066
6c75736820616e64
2061204c57472066
6c7573682e0a496e
2074686520486f72
757320696d706c65
6d656e746174696f
6e2c207468652066
6c7573682070726f
6365737320697320
6964656e74696361
6c20666f7220626f
7468204857477320
616e64204c574773
202e20496e206569
7468657220636173
652c207468652063
6f6f7264696e6174
6f72207761697473
20756e74696c2069
742068617320636f
6c6c656374656420
464c555348204f4b
206d657373616765
730a66726f6d2061
6c6c206f74686572
206d656d62657273
20616e642c206173
20736f6f6e206173
2074686520666c75
736820697320646f
6e652c0a696e7374
616c6c732061206e
657720766965772e
2054686520646966
666572656e636520
6265747765656e20
466c757368485747
202870290a616e64
20466c7573684c57
472028702920736f
6c656c7920636f6d
65732066726f6d20
74686520636f6e66
696775726174696f
6e206f660a726573
6f75726365732069
6e2074686520756e
6465726c79696e67
206c61796572732e
20496e2074686520
4857472061707072
6f6163682c0a7468
65204d4252534849
502c20465241472c
204e414b20616e64
20434f4d206c6179
657273206e656564
20746f2062650a72
65636f6e66696775
7265642065766572
792074696d652061
206e657720766965
7720697320696e73
74616c6c65642028
7468697320697320
706572666f726d65
6420627920696e73
74616c6c696e6720
746865206e657720
7669657720696e20
616c6c2074686573
65206c6179657273
292e20496e0a7468
65204c5747206170
70726f6163682c20
7468657365207265
736f757263657320
6172652073686172
656420616e64206e
65656420746f0a62
65207265636f6e66
696775726564206f
6e6c79206f6e6365
2e0a0a48574720e2
8892e288920a0a4c
656176696e67206f
6e652067726f7570
206f6e6c792e0a0a
6a6f696e2074696d
6520286d73656329
0a0a33300a323030
300a0a4c574720e2
88920a0a32350a31
3530300a0a6c6561
76652074696d6520
286d736563290a0a
313030300a0a3530
300a0a300a300a0a
32300a0a34300a0a
36300a0a38300a31
30300a3132300a74
6f74616c2023206f
662067726f757073
206e0a0a3134300a
0a3136300a0a3138
300a0a3230300a0a
4669677572652038
2e204a6f696e206e
2067726f7570730a
0a352e332e31204d
656d626572736869
70206f7065726174
696f6e732e20546f
206576616c756174
6520746865206566
666563740a6f6620
4c574773206f6e20
6d656d6265727368
6970206f70657261
74696f6e732c2077
65206d6561737572
6564207468652074
6f74616c0a666c75
73682074696d6520
6174207468652063
6f6f7264696e6174
6f72207768656e20
616e6f7468657220
70726f6365737320
6a6f696e732c0a6f
6e65206279206f6e
652c206e2067726f
7570732077697468
207468652073616d
65206d656d626572
736869702e205765
206d656173757265
642074686520666c
7573682074696d65
206265747765656e
207468652074696d
65207768656e2074
686520636f6f7264
696e61746f722072
6563656976657320
7468652066697273
74204a6f696e2e72
657120616e642074
6865206c61737420
566965772e696e74
2e0a466967757265
20382073686f7773
2074686520666c75
73682074696d6520
7768656e20612070
726f63657373206a
6f696e732061730a
7468652074686972
6420616e6420666f
75727468206d656d
6265722e20546865
2074696d65207265
7175697265642074
6f20706572666f72
6d206d656d626572
73686970206f7065
726174696f6e7320
697320612066756e
6374696f6e206f66
20746865206e756d
6265720a0a32300a
0a48574720e28892
e288920a0a31350a
0a4c574720e28892
0a0a31300a0a350a
0a300a300a0a3230
0a0a34300a0a3630
0a0a38300a313030
0a3132300a746f74
616c2023206f6620
67726f757073206e
0a0a3134300a0a31
36300a0a3138300a
0a3230300a0a4669
6775726520392e20
4c65617665206f6e
652067726f75700a
5468652064696666
6572656e63652062
65747765656e2046
6c75736848574720
28702920616e6420
466c7573684c5747
202870290a697320
73686f776e20696e
2046696775726520
3920776865726520
74686520666c7573
682074696d652069
73206d6561737572
6564207768656e0a
61206e6f6e2d636f
6f7264696e61746f
72206c6561766573
206f6e65206f6620
746865206e20666f
75722d6d656d6265
722067726f757073
2e0a312054686520
6d65617375726564
2074696d65206973
20736d616c6c6572
2073696e63652074
6865726520697320
736f6d6520646567
726565206f662070
6172616c6c656c69
736d0a616d6f6e67
20636f6e63757272
656e7420666c7573
6865732e0a0a0c54
6f74616c20637261
73682068616e646c
696e672074696d65
20666f72206e204c
5747730a3130300a
39300a38300a0a72
65636f7665727920
74696d6520286d73
6563290a0a546865
20696d70726f7665
6d656e74206f6620
4c574773206f7665
7220485747732069
6e20746869732063
617365206973206e
6f740a696d707265
73736976652e2053
74696c6c2c206974
2070726f76696465
7320736f6d652061
6d6f756e74206f66
206f7074696d697a
6174696f6e0a7768
6f73652062656e65
666974206265636f
6d6573206e6f6e2d
6e65676c65676962
6c6520666f72206c
61726765206e756d
626572206f660a67
726f7570732e2057
68656e2073657665
72616c206a6f696e
7320617265207265
7175657374656420
696e206275727374
732c207468652070
6572666f726d616e
63652063616e2062
6520667572746865
7220696d70726f76
6564206279207069
6767796261636b69
6e67207365766572
616c0a696e646570
656e64656e74206a
6f696e7320616e64
2065786563757469
6e67207468656d20
696e20612073696e
676c65206f706572
6174696f6e2e0a57
652061726520706c
616e6e696e672074
6f206d6f64696679
2074686520486f72
757320696e746572
6661636520746f20
616c6c6f770a6120
70726f6365737320
746f206a6f696e20
6e204c5747732061
74206f6e63652c20
616e64207468656e
206275696c642061
20e2809c6a6f696e
7069676779626163
6be2809d206c6179
6572207468617420
63616e2062652069
6e73657274656420
617420616e792070
6f696e7420696e20
7468650a73746163
6b2e0a0a37300a36
300a35300a34300a
33300a0a352e332e
32204661696c7572
65207265636f7665
72792e20546f2065
76616c7561746520
7468652065666665
6374206f66204c57
4773206f6e0a6661
696c757265207265
636f766572792c20
776520636f6e6475
6374656420746865
20666f6c6c6f7769
6e6720746573743a
206120676976656e
0a70726f63657373
2c206d656d626572
206f66206e206964
656e746963616c20
666f75722d6d656d
6265722067726f75
70732c2063726173
6865730a616e6420
666f726365732074
68657365206e2067
726f75707320746f
207265636f6e6669
677572652e205468
65207265636f7665
72790a74696d652c
206d656173757265
6420626574776565
6e20746865206465
74656374696f6e20
6f66207468652066
61696c7572652061
6e64207468650a69
6e7374616c6c6174
696f6e206f662061
206e657720766965
7732206973207072
6573656e74656420
696e204669677572
652031302e0a0a32
300a31300a300a30
0a0a32300a0a3430
0a0a36300a0a3830
0a3130300a313230
0a746f74616c2023
206f662067726f75
7073206e0a0a3134
300a0a3136300a0a
3138300a0a323030
0a0a466967757265
2031312e20526563
6f76657279206672
6f6d206372617368
657320284c574720
290a4f6e65207072
6f63657373206372
617368657320e288
92e28892206c6561
76696e67206e2067
726f7570732e0a33
3030300a0a330a0a
323530300a0a322e
350a0a323030300a
0a6f6e65e2889277
6179206c6174656e
637920286d736563
290a0a7265636f76
6572792074696d65
20286d736563290a
0a48574720e28892
e288920a0a4c5747
20e288920a313530
300a0a313030300a
0a320a0a48574720
e28892e288920a0a
312e350a0a4c5747
20e288920a0a310a
0a3530300a0a302e
350a0a300a300a0a
32300a0a34300a0a
36300a0a38300a31
30300a3132300a74
6f74616c2023206f
662067726f757073
206e0a0a3134300a
0a3136300a0a3138
300a0a3230300a0a
300a300a0a32300a
0a34300a0a36300a
0a38300a3130300a
3132300a746f7461
6c2023206f662067
726f757073206e0a
0a3134300a0a3136
300a0a3138300a0a
3230300a0a466967
7572652031302e20
5265636f76657279
2066726f6d206372
6173686573202863
6f6d706172617469
7665290a0a466967
7572652031322e20
4461746120747261
6e736665720a0a41
6761696e2c207468
6520696e7374616c
6c6174696f6e206f
662061206e657720
7669657720697320
7072656365646564
20627920610a666c
757368206f706572
6174696f6e2e2053
696e636520612066
61696c7572652069
73206e6f74696669
6564206174206561
6368206f66207468
65206e0a67726f75
70732c2065616368
2067726f75702073
7461727473206974
73206f776e20666c
7573682e20496e20
7468652048574720
746573742c0a6e20
48574720666c7573
686573206e656564
20746f2062652072
756e20696e207061
72616c6c656c2e20
4f6e20746865206f
746865720a68616e
642c20746865204c
5747206c61796572
206d756c7469706c
6578657320746865
20666c7573686573
206f6620616c6c20
4c57477320696e20
610a73696e676c65
20666c757368206f
662074686520756e
6465726c79696e67
2073686172656420
485747202e205468
75732c2074686520
746f74616c0a7265
636f766572792074
696d6520666f7220
485747732073686f
77732061206d6f72
65207468616e206c
696e65617220696e
6372656173650a61
73206e20696e6372
65617365732c2077
6865726561732066
6f72204c57477320
2c2074686520746f
74616c207265636f
766572792074696d
650a696e63726561
736573206c696e65
61726c7920776974
6820612076657279
20666c617420736c
6f702e2054686973
20736d616c6c206c
696e6561720a696e
6372656173652069
732064756520746f
2074686520666163
7420746861742c20
696e20616e792063
6173652c20616c6c
204c574773206e65
656420746f0a6265
206e6f7469666965
64206f6620746865
2067726f7570206d
656d626572736869
70206368616e6765
2e20466f72207265
61646162696c6974
792c0a6120736361
6c656420696c6c75
7374726174696f6e
206f662074686973
2072656c61746976
656c7920666c6174
20736c6f70206973
2073686f776e2069
6e0a466967757265
2031312e0a0a352e
332e332044617461
207472616e736665
722e20546f206576
616c756174652074
686520696d706163
74206f66204c5747
206f6e0a64617461
207472616e736665
722c207765206d65
617375726564206f
6e652d776179206c
6174656e63792077
68656e206f6e6520
6d656d6265722069
73206d756c746963
617374696e672031
302d42797465206d
6573736167657320
696e206f6e65206f
6620746865206e20
666f75726d656d62
65722067726f7570
732e204669677572
652031322073686f
7773207468617420
757020746f206e20
3d2035302c207468
650a6f6e652d7761
79206c6174656e63
79206f6620746865
2048574720746573
7420697320736c69
6768746c79206265
7474657220746861
6e20746861740a6f
6620746865204c57
4720746573742c20
7769746820746865
2064696666657265
6e6365206265696e
67203230206d6963
726f7365636f6e64
732e0a4166746572
206e203d2035302c
20546865204c5747
2066696775726520
737461797320636f
6e7374616e742061
7420312e3235206d
696c6c697365636f
6e64732c20776869
6c65207468652048
5747206669677572
6520696e63726561
736573206472616d
61746963616c6c79
2066726f6d0a312e
323820746f20322e
3930206d696c6c69
7365636f6e647320
6173206e20696e63
7265617365732066
726f6d2035302074
6f203230302e0a49
7420697320696e74
6572657374696e67
20746f2064697363
7573732074686520
6361757365732066
6f72207468657365
206265686176696f
72732e0a496e206f
7264657220746f20
6f66666572207469
6d656c7920666169
6c75726520646574
656374696f6e2061
6e642072656c6961
626c65204649464f
0a636f6d6d756e69
636174696f6e2c20
746865204e414b20
6c6179657220696e
20486f7275732068
6173206561636820
67726f75700a6d65
6d626572206d756c
746963617374206f
6e6520e2809c7374
61747573e2809d20
7265706f72742062
61636b67726f756e
64206d6573736167
650a657665727920
32207365636f6e64
732e204576657279
206d656d62657220
7468657265666f72
6520726563656976
6573206f6e650ae2
809c737461747573
e2809d207265706f
7274206576657279
2032207365636f6e
64732e205768656e
2074686572652061
7265206e20485747
73206f6e0a656163
682070726f636573
732c206120746f74
616c206f66206e3d
32206261636b6772
6f756e64206d6573
7361676573206e65
656420746f206265
0a0a3220496e0a0a
486f7275732c2066
61696c7572652064
6574656374696f6e
2069732070657266
6f726d6564206174
20746865206c6f77
6572206c61796572
73205b385d2e0a0a
0c68616e646c6564
2065766572792073
65636f6e642e2045
78706572696d656e
74732073686f7720
7468617420746865
206e6574776f726b
0a62616e64776964
7468206973206d6f
7265207468616e20
656e6f7567682074
6f2068616e646c65
206e3d3220495020
6d756c7469636173
74730a7065722073
65636f6e64206f66
20736d616c6c2062
61636b67726f756e
64206d6573736167
6573206576656e20
7768656e206e203d
0a3230302e205468
6520626f74746c65
6e65636b20697320
7468652072656365
697665722070726f
63657373696e6720
7370656564205b38
5d2e0a4173206e20
696e637265617365
732c207468652070
726f636573732069
73206e6f74206661
737420656e6f7567
6820746f2068616e
646c650a616c6c20
74686520696e636f
6d696e67206d6573
73616765732c2074
68657265666f7265
2c2069742064726f
7073207468656d20
66726f6d0a746865
20696e7075742062
75666665722e2054
686520726573756c
74696e6720726571
756573747320666f
722072657472616e
736d697373696f6e
730a616e64207265
7472616e736d6973
73696f6e73207468
656d73656c766573
2061646420657665
6e206d6f7265206c
6f616420746f2074
68650a7379737465
6d2e205468697320
736e6f7762616c6c
2065666665637420
6361757365732074
686520666c757368
2074696d6520616e
6420646174610a74
72616e7366657220
6c6174656e637920
666f72206e206772
6f75707320746f20
696e637265617365
206472616d617469
63616c6c79207769
74680a6e2e0a5468
6573652072657375
6c74732073686f77
2074686174207468
65207265736f7572
6365207368617269
6e672070726f6d6f
7465640a62792074
6865204c57472061
7070726f61636820
6f66666572732063
6c65617220706572
666f726d616e6365
20616476616e7461
6765732e0a497420
697320696e746572
657374696e672074
6f206f6273657276
6520746861742074
6865207369676e69
666963616e742069
6d70726f76656d65
6e74730a696e2066
61696c7572652072
65636f7665727920
617265206e6f7420
6163686965766564
2061742074686520
636f7374206f6620
646567726164696e
67206f7468657220
7365727669636573
2e204f6e20746865
20636f6e74726172
792c207468652070
6572666f726d616e
6365206f660a6461
7461207472616e73
66657220616e6420
6a6f696e206f7065
726174696f6e7320
697320616c736f20
696d70726f766564
20666f72206c6172
67650a6e756d6265
72206f662067726f
7570732e0a0a360a
0a436f6e636c7573
696f6e7320616e64
2066757475726520
776f726b0a0a496e
2074686973207061
7065722077652068
6176652070726573
656e746564206120
746563686e697175
6520746861742070
726f6d6f74657320
7265736f75726365
2073686172696e67
20616d6f6e672067
726f757073207468
6174206861766520
7468652073616d65
0a6f722073696d69
6c6172206d656d62
6572736869702e20
5468697320697320
6163686965766564
2062792065786563
7574696e672c2069
6e0a612066756c6c
79207472616e7370
6172656e74206d61
6e6e65722c206120
736574206f662069
6e657870656e7369
76652070726f746f
636f6c730a6f6e20
746f70206f662061
207669727475616c
6c792073796e6368
726f6e6f7573206c
617965722e20416e
20696d706c656d65
6e746174696f6e20
6f66207468657365
2070726f746f636f
6c7320696e207468
6520486f72757320
73797374656d2068
61732073686f776e
20746861740a7468
697320617070726f
616368206f666665
727320636c656172
20706572666f726d
616e636520616476
616e74616765732e
2054686520657870
6572696d656e7473
207765726520646f
6e6520696e206120
656e7669726f6e6d
656e742077686572
6520746865206d61
7070696e670a6265
747765656e206c69
6768742d77656967
68742067726f7570
7320616e64206865
6176792d77656967
68742067726f7570
732072656d61696e
7320636f6e737461
6e74206f76657220
7369676e69666963
616e742070657269
6f6473206f66206f
7065726174696f6e
2e2057650a617265
2063757272656e74
6c79206578706572
696d656e74696e67
2077697468207377
69746368696e6720
6865757269737469
6373202874686174
0a64796e616d6963
616c6c79206d6f64
6966792074686973
206d617070696e67
2920746f20657874
656e642074686573
6520726573756c74
7320746f0a6c6573
7320737461626c65
2067726f75702070
61747465726e732e
0a0a5b355d0a0a5b
365d0a0a5b375d0a
0a5b385d0a0a5b39
5d0a0a5b31305d0a
0a5b31315d0a0a5b
31325d0a0a5b3133
5d0a0a5b31345d0a
0a41636b6e6f776c
656467656d656e74
730a5b31355d0a0a
5468652061757468
6f72732061726520
677261746566756c
20746f2074686520
616e6f6e796d6f75
7320726566657265
657320666f720a74
6865697220636f6d
6d656e7473206f6e
20616e206561726c
6965722076657273
696f6e206f662074
6869732070617065
722e0a5b31365d0a
0a5265666572656e
6365730a5b315d20
4b2e204269726d61
6e20616e6420542e
204a6f736570682e
204578706c6f6974
696e67207265706c
69636174696f6e20
696e206469737472
6962757465642073
797374656d732e20
496e20532e204d75
6c6c656e6465722c
20656469746f722c
2044697374726962
7574656420537973
74656d732c207061
67657320333139e2
80933336362e2041
434d205072657373
2046726f6e746965
7220536572696573
2c20313938392e0a
5b325d204b2e2042
69726d616e20616e
6420522e2076616e
2052656e65737365
2c20656469746f72
732e2052656c6961
626c652044697374
726962757465640a
436f6d707574696e
6720576974682074
6865204953495320
546f6f6c6b69742e
204e756d62657220
4953424e20302d38
313836353334322d
362e204945454520
4353205072657373
2c204d61722e2031
3939342e0a5b335d
204d2e2043617374
726f20616e64204e
2e204e657665732e
2047726f75702063
6f6d6d756e696361
74696f6e20737570
706f727420666f72
0a706172616c6c65
6c206170706c6963
6174696f6e732069
6e206120636c7573
746572206f662077
6f726b7374617469
6f6e732e20546563
686e6963616c0a72
65706f72742c2049
4e4553432d495354
2c204a756e652031
3939342e0a5b345d
20442e20446f6c65
762c20442e204d61
6c6b692c20616e64
20522e205374726f
6e672e20416e2061
73796e6368726f6e
6f7573206d656d62
6572736869702070
726f746f636f6c20
7468617420746f6c
6572617465732070
6172746974696f6e
732e20546563686e
6963616c2052652d
0a0a706f72742052
6573656172636820
5265706f72742c20
5468652048656272
657720556e697665
7273697479206f66
204a65727573616c
656d2c0a31393933
2e0a522e20467269
65646d616e20616e
6420522e2076616e
2052656e65737365
2e205374726f6e67
20616e6420776561
6b20766972747561
6c0a73796e636872
6f6e7920696e2068
6f7275732e20496e
2031357468205379
6d706f7369756d20
6f6e2052656c6961
626c652044697374
7269627574656420
53797374656d732c
204f63742e203139
39362e0a422e2047
6c6164652c204b2e
204269726d616e2c
20522e20436f6f70
65722c20616e6420
522e2076616e2052
656e657373652e20
4c69676874776569
6768742070726f63
6573732067726f75
707320696e207468
6520697369732073
797374656d2e2044
6973747269627574
6564205379737465
6d0a456e67696e65
6572696e672c2028
31293a3239e28093
33362c2031393933
2e0a472e20477261
7920616e6420442e
204368657269746f
6e2e204c65617365
733a20416e206566
66696369656e7420
6661756c742d746f
6c6572616e740a6d
656368616e69736d
20666f7220646973
7472696275746564
2066696c65206361
63686520636f6e73
697374656e63792e
20496e2050726f63
656564696e677320
6f66207468652054
77656c6674682041
434d2053796d706f
7369756d206f6e20
4f7065726174696e
672053797374656d
73205072696e6369
706c65732c207061
67657320323032e2
80933231302c204c
697463686669656c
64205061726b2c20
4172697a6f6e612c
0a4465632e203139
38392e0a4b2e2047
756f2c20572e2056
6f67656c732c2061
6e6420522e207661
6e2052656e657373
652e205374727563
7475726564207669
727475616c0a7379
6e6368726f6e793a
204578706c6f7269
6e67207468652062
6f756e6473206f66
207669727475616c
6c792073796e6368
726f6e6f75730a67
726f757020636f6d
6d756e6963617469
6f6e2e20496e2050
726f63656564696e
6773206f66207468
6520377468204143
4d0a5349474f5053
204575726f706561
6e20576f726b7368
6f702c2053657074
2e20313939362e0a
4f2e204861677361
6e642c20482e2048
65727a6f672c204b
2e204269726d616e
2c20616e6420522e
20436f6f7065722e
204f626a6563746f
7269656e74656420
72656c6961626c65
2064697374726962
757465642070726f
6772616d6d696e67
2e20496e2050726f
63656564696e6773
0a6f6620326e6420
496e7465726e6174
696f6e616c20576f
726b73686f70206f
6e204f626a656374
2d4f7269656e7461
74696f6e20696e20
4f7065726174696e
672053797374656d
732c20313939322e
0a4c2e204d6f7365
722c20592e20416d
69722c20502e204d
656c6c6961722d53
6d6974682c20616e
6420442e20416761
7277616c2e204578
74656e6465642076
69727475616c2073
796e6368726f6e79
2e20496e2050726f
63656564696e6773
6f66207468652031
34746820496e7465
726e6174696f6e61
6c20436f6e666572
656e6365206f6e20
4469737472696275
74656420436f6d70
7574696e67205379
7374656d732c2070
616765730a3536e2
809336352c20506f
7a6e616e2c20506f
6c616e642c204a75
6e6520313939342e
0a442e20506f7765
6c6c2c2065646974
6f722e2044656c74
612d34202d204120
47656e6572696320
4172636869746563
7475726520666f72
20446570656e6461
626c652044697374
7269627574656420
436f6d707574696e
672e204553505249
5420526573656172
6368205265706f72
74732e2053707269
6e67657220566572
6c61672c204e6f76
2e20313939312e0a
4c2e20526f647269
677565732c204b2e
2047756f2c20412e
2053617267656e74
6f2c20522e207661
6e2052656e657373
652c0a422e20476c
6164652c20502e20
566572c4b1cc8173
73696d6f2c20616e
64204b2e20426972
6d616e2e20412064
796e616d6963206c
696768740a776569
6768742067726f75
7020736572766963
652e20546563686e
6963616c20726570
6f72742c20494e45
53432f436f726e65
6c6c0a556e69762e
2c204d61722e2031
3939362e0a412e20
5363686970657220
616e6420412e2052
6963636961726469
2e20566972747561
6c6c792d73796e63
68726f6e6f757320
636f6d6d756e6963
6174696f6e206261
736564206f6e2061
207765616b206661
696c757265207375
73706563746f722e
20496e2044696765
7374206f66205061
706572732c205468
6520323374682049
6e7465726e617469
6f6e616c2053796d
706f7369756d206f
6e204661756c742d
546f6c6572616e74
0a436f6d70757469
6e672c2070616765
7320353334e28093
3534332c20546f75
6c6f7573652c2046
72616e63652c204a
756e652031393933
2e0a522e2076616e
2052656e65737365
2c204b2e20426972
6d616e2c20522e20
436f6f7065722c20
422e20476c616465
2c20616e640a502e
205374657068656e
736f6e2e2052656c
6961626c65206d75
6c74696361737420
6265747765656e20
6d6963726f6b6572
6e656c732e0a496e
2050726f63656564
696e6773206f6620
746865205553454e
495820576f726b73
686f70206f6e204d
6963726f2d4b6572
6e656c730a616e64
204f746865722041
7263686974656374
757265732c207061
67657320323639e2
80933238332c2053
656174746c652c20
57617368696e6774
6f6e2c204170722e
20313939322e0a52
2e2076616e205265
6e657373652c204b
2e204269726d616e
2c20616e6420532e
204d616666656973
2e20486f7275732c
206120666c657869
626c650a67726f75
7020636f6d6d756e
69636174696f6e20
73797374656d2e20
436f6d6d756e6963
6174696f6e73206f
6620746865204143
4d2c0a3339283429
3a3736e280933833
2c204170722e2031
3939362e0a502e20
566572c4b1cc8173
73696d6f20616e64
204c2e20526f6472
69677565732e2054
6865204e61765465
6368206c61726765
2d7363616c652064
6973747269627574
656420636f6d7075
74696e6720706c61
74666f726d2e2054
6563686e6963616c
207265706f72742c
204643554c2f4953
542e0a28696e2070
7265706172617469
6f6e292e0a0a0c
